{
  "version": "1.0",
  "truncation": null,
  "padding": null,
  "added_tokens": [
    {
      "id": 0,
      "content": "[PAD]",
      "single_word": false,
      "lstrip": false,
      "rstrip": false,
      "normalized": false,
      "special": true
    },
    {
      "id": 1,
      "content": "[UNK]",
      "single_word": false,
      "lstrip": false,
      "rstrip": false,
      "normalized": false,
      "special": true
    },
    {
      "id": 2,
      "content": "[BOS]",
      "single_word": false,
      "lstrip": false,
      "rstrip": false,
      "normalized": false,
      "special": true
    },
    {
      "id": 3,
      "content": "[EOS]",
      "single_word": false,
      "lstrip": false,
      "rstrip": false,
      "normalized": false,
      "special": true
    }
  ],
  "normalizer": null,
  "pre_tokenizer": {
    "type": "ByteLevel",
    "add_prefix_space": false,
    "trim_offsets": true,
    "use_regex": true
  },
  "post_processor": null,
  "decoder": {
    "type": "ByteLevel",
    "add_prefix_space": true,
    "trim_offsets": true,
    "use_regex": true
  },
  "model": {
    "type": "BPE",
    "dropout": null,
    "unk_token": "[UNK]",
    "continuing_subword_prefix": null,
    "end_of_word_suffix": null,
    "fuse_unk": false,
    "byte_fallback": false,
    "ignore_merges": false,
    "vocab": {
      "[PAD]": 0,
      "[UNK]": 1,
      "[BOS]": 2,
      "[EOS]": 3,
      "!": 4,
      "\"": 5,
      "#": 6,
      "$": 7,
      "%": 8,
      "&": 9,
      "'": 10,
      "(": 11,
      ")": 12,
      "*": 13,
      "+": 14,
      ",": 15,
      "-": 16,
      ".": 17,
      "/": 18,
      "0": 19,
      "1": 20,
      "2": 21,
      "3": 22,
      "4": 23,
      "5": 24,
      "6": 25,
      "7": 26,
      "8": 27,
      "9": 28,
      ":": 29,
      ";": 30,
      "<": 31,
      "=": 32,
      ">": 33,
      "?": 34,
      "@": 35,
      "A": 36,
      "B": 37,
      "C": 38,
      "D": 39,
      "E": 40,
      "F": 41,
      "G": 42,
      "H": 43,
      "I": 44,
      "J": 45,
      "K": 46,
      "L": 47,
      "M": 48,
      "N": 49,
      "O": 50,
      "P": 51,
      "Q": 52,
      "R": 53,
      "S": 54,
      "T": 55,
      "U": 56,
      "V": 57,
      "W": 58,
      "X": 59,
      "Y": 60,
      "Z": 61,
      "[": 62,
      "\\": 63,
      "]": 64,
      "^": 65,
      "_": 66,
      "`": 67,
      "a": 68,
      "b": 69,
      "c": 70,
      "d": 71,
      "e": 72,
      "f": 73,
      "g": 74,
      "h": 75,
      "i": 76,
      "j": 77,
      "k": 78,
      "l": 79,
      "m": 80,
      "n": 81,
      "o": 82,
      "p": 83,
      "q": 84,
      "r": 85,
      "s": 86,
      "t": 87,
      "u": 88,
      "v": 89,
      "w": 90,
      "x": 91,
      "y": 92,
      "z": 93,
      "{": 94,
      "|": 95,
      "}": 96,
      "~": 97,
      "¡": 98,
      "¢": 99,
      "£": 100,
      "¤": 101,
      "¥": 102,
      "¦": 103,
      "§": 104,
      "¨": 105,
      "©": 106,
      "ª": 107,
      "«": 108,
      "¬": 109,
      "®": 110,
      "¯": 111,
      "°": 112,
      "±": 113,
      "²": 114,
      "³": 115,
      "´": 116,
      "µ": 117,
      "¶": 118,
      "·": 119,
      "¸": 120,
      "¹": 121,
      "º": 122,
      "»": 123,
      "¼": 124,
      "½": 125,
      "¾": 126,
      "¿": 127,
      "Â": 128,
      "Ã": 129,
      "Ä": 130,
      "Å": 131,
      "Æ": 132,
      "Ç": 133,
      "È": 134,
      "É": 135,
      "Ê": 136,
      "Ë": 137,
      "Ì": 138,
      "Í": 139,
      "Î": 140,
      "Ï": 141,
      "Ð": 142,
      "Ñ": 143,
      "Ò": 144,
      "Ó": 145,
      "Ô": 146,
      "Õ": 147,
      "Ö": 148,
      "×": 149,
      "Ø": 150,
      "Ù": 151,
      "Ú": 152,
      "Û": 153,
      "Ü": 154,
      "Ý": 155,
      "Þ": 156,
      "ß": 157,
      "à": 158,
      "á": 159,
      "â": 160,
      "ã": 161,
      "ä": 162,
      "å": 163,
      "æ": 164,
      "ç": 165,
      "è": 166,
      "é": 167,
      "ê": 168,
      "ë": 169,
      "ì": 170,
      "í": 171,
      "î": 172,
      "ï": 173,
      "ð": 174,
      "ó": 175,
      "Ā": 176,
      "ā": 177,
      "Ă": 178,
      "Ą": 179,
      "ą": 180,
      "Ć": 181,
      "ć": 182,
      "Ĉ": 183,
      "ĉ": 184,
      "Ď": 185,
      "ğ": 186,
      "Ġ": 187,
      "ġ": 188,
      "Ģ": 189,
      "ģ": 190,
      "Ĥ": 191,
      "ĥ": 192,
      "Ħ": 193,
      "ħ": 194,
      "Ĩ": 195,
      "ĩ": 196,
      "Ī": 197,
      "ī": 198,
      "Ĭ": 199,
      "ĭ": 200,
      "Į": 201,
      "į": 202,
      "İ": 203,
      "ı": 204,
      "Ĳ": 205,
      "ĳ": 206,
      "Ĵ": 207,
      "ĵ": 208,
      "Ķ": 209,
      "ķ": 210,
      "ĸ": 211,
      "Ĺ": 212,
      "ĺ": 213,
      "Ļ": 214,
      "ļ": 215,
      "Ľ": 216,
      "ľ": 217,
      "Ŀ": 218,
      "ŀ": 219,
      "Ł": 220,
      "ł": 221,
      "Ń": 222,
      "á»": 223,
      "áº": 224,
      "ng": 225,
      "Ġt": 226,
      "Ġc": 227,
      "ĠÄ": 228,
      "nh": 229,
      "ĠÄĳ": 230,
      "Ãł": 231,
      "Æ°": 232,
      "Ġth": 233,
      "Ã¡": 234,
      "Ġv": 235,
      "Ġl": 236,
      "Ġh": 237,
      "Ġch": 238,
      "iá»": 239,
      "Ġm": 240,
      "Ġb": 241,
      "Ġk": 242,
      "Ġtr": 243,
      "Ġnh": 244,
      "Æ°á»": 245,
      "Ġs": 246,
      "áº¡": 247,
      "áº¿": 248,
      "Ã´": 249,
      "Ġn": 250,
      "Ġg": 251,
      "Ġkh": 252,
      "áº£": 253,
      "Ġd": 254,
      "Ãª": 255,
      "Ã³": 256,
      "á»Ļ": 257,
      "Ġng": 258,
      "áº¥": 259,
      "Ġp": 260,
      "Ġph": 261,
      "á»ĳ": 262,
      "iá»ĩ": 263,
      "Ã¢": 264,
      "Ã¡c": 265,
      "ĠT": 266,
      "Ãªn": 267,
      "Ã´ng": 268,
      "Ã¬": 269,
      "ĠÄĳá»": 270,
      "Ġvá»": 271,
      "ĠvÃł": 272,
      "Æ¡": 273,
      "á»§": 274,
      "áºŃ": 275,
      "áº§": 276,
      "Ġgi": 277,
      "ĠlÃł": 278,
      "uy": 279,
      "ÃŃ": 280,
      "Ġthá»": 281,
      "iáº¿": 282,
      "Ġq": 283,
      "Ġr": 284,
      "Ľi": 285,
      "Æ°á»Ŀ": 286,
      "Æ°á»£": 287,
      "áº¥t": 288,
      "Ġtá»": 289,
      "Ġx": 290,
      "ĠC": 291,
      "ĠN": 292,
      "ĠcÃ³": 293,
      "Ġcá»§": 294,
      "áº¡i": 295,
      "Ġcá»§a": 296,
      "Ġqu": 297,
      "Äĥ": 298,
      "Ãº": 299,
      "Ġhá»": 300,
      "ong": 301,
      "ĠcÃ¡c": 302,
      "an": 303,
      "áº¯": 304,
      "á»ĭ": 305,
      "Ã£": 306,
      "Ã¬nh": 307,
      "iá»ģ": 308,
      "á»¯": 309,
      "Æ°á»£c": 310,
      "á»±": 311,
      "Ã¢n": 312,
      "ĠH": 313,
      "ch": 314,
      "á»Ļt": 315,
      "á»¥": 316,
      "ĠÄĳÆ°á»£c": 317,
      "á»©": 318,
      "Ã²": 319,
      "ĠkhÃ´ng": 320,
      "ay": 321,
      "Ġcho": 322,
      "Ãły": 323,
      "Ã¹": 324,
      "ĠB": 325,
      "á»Ł": 326,
      "áº·": 327,
      "iá»ĩn": 328,
      "áº¡n": 329,
      "ĠV": 330,
      "Ġtrong": 331,
      "ĠÄĲ": 332,
      "áº§n": 333,
      "Ġmá»Ļt": 334,
      "iÃªn": 335,
      "inh": 336,
      "Ġvá»Ľi": 337,
      "Æ°á»Ľ": 338,
      "Æ°á»Ŀi": 339,
      "ao": 340,
      "Ġ1": 341,
      "ang": 342,
      "anh": 343,
      "Ġngh": 344,
      "iá»ģu": 345,
      "ĠM": 346,
      "in": 347,
      "Æ°Æ¡": 348,
      "iá»ĥ": 349,
      "á»¯ng": 350,
      "am": 351,
      "á»į": 352,
      "Ġ2": 353,
      "áº£i": 354,
      "ĠTh": 355,
      "Ãłng": 356,
      "áº£n": 357,
      "Ãłnh": 358,
      "ĠngÆ°á»Ŀi": 359,
      "Æ°á»Ŀng": 360,
      "á»ĩ": 361,
      "Æ°Æ¡ng": 362,
      "ai": 363,
      "ĠL": 364,
      "Ġnhá»¯ng": 365,
      "ĠS": 366,
      "Ãłn": 367,
      "ĠnhÆ°": 368,
      "on": 369,
      "áº§u": 370,
      "Ãłi": 371,
      "ĠÄĳá»Ļ": 372,
      "Ã¢y": 373,
      "Æ°á»Ľc": 374,
      "áº¿n": 375,
      "Ġho": 376,
      "Ġthá»ĥ": 377,
      "âĢ": 378,
      "á»ĵ": 379,
      "Å©": 380,
      "ung": 381,
      "ĠP": 382,
      "ĠÄĳá»ĥ": 383,
      "áºŃn": 384,
      "iáº¿t": 385,
      "á»ķ": 386,
      "Ã´i": 387,
      "á»Ń": 388,
      "ĠÄĳÃ£": 389,
      "uá»ĳ": 390,
      "Ġbáº¡n": 391,
      "Äĥng": 392,
      "ÃŃnh": 393,
      "Ã¹ng": 394,
      "áºŃt": 395,
      "áº½": 396,
      "Ŀi": 397,
      "áº©": 398,
      "au": 399,
      "áº¿t": 400,
      "Ã½": 401,
      "ĠK": 402,
      "Æ¡n": 403,
      "ĠnÃły": 404,
      "á»ī": 405,
      "ĠcÃ´ng": 406,
      "ĠTr": 407,
      "Ã©": 408,
      "ĠCh": 409,
      "Ġsá»ĳ": 410,
      "Ġtá»«": 411,
      "ĠÄĳáº¿n": 412,
      "Ġlá»": 413,
      "Ã¡n": 414,
      "á»ĳi": 415,
      "Ġmá»": 416,
      "Ġsáº½": 417,
      "iá»ĩt": 418,
      "iáº¿n": 419,
      "Å©ng": 420,
      "Ġkhi": 421,
      "Ã¡t": 422,
      "ĠG": 423,
      "Ġhá»į": 424,
      "Ġgiá»": 425,
      "Ã¡ch": 426,
      "ĠD": 427,
      "Ã¡i": 428,
      "Ġdá»¥": 429,
      "á»Ļi": 430,
      "Ġ(": 431,
      "ĠÄĳÃ³": 432,
      "Ġra": 433,
      "Äĥm": 434,
      "Ġvá»ģ": 435,
      "á»©c": 436,
      "Ġcáº£": 437,
      "áº±": 438,
      "00": 439,
      "ĠlÃłm": 440,
      "iá»ĩu": 441,
      "uyá»": 442,
      "Ã¡ng": 443,
      "er": 444,
      "Ġnhiá»ģu": 445,
      "ĠcÅ©ng": 446,
      "Ġá»Ł": 447,
      "áº¥y": 448,
      "em": 449,
      "áºŃp": 450,
      "ĠA": 451,
      "eo": 452,
      "iÃª": 453,
      "ĠvÃło": 454,
      "ĠmÃł": 455,
      "..": 456,
      "ĠNg": 457,
      "áº«": 458,
      "ĠtrÃªn": 459,
      "Ã¡o": 460,
      "Ġláº¡i": 461,
      "Ġtáº¡i": 462,
      "en": 463,
      "Ã²ng": 464,
      "Ġthu": 465,
      "Ġdá»¥ng": 466,
      "ĠhÃłng": 467,
      "ĠPh": 468,
      "ÃŃch": 469,
      "Ãºng": 470,
      "ĠÄĳá»ĭ": 471,
      "iá»ĩc": 472,
      "ĠnhÃł": 473,
      "Ġ-": 474,
      "Ġchá»ī": 475,
      "Ġnháº¥t": 476,
      "Ãło": 477,
      "áº£o": 478,
      "Ġsá»±": 479,
      "Ġ\"": 480,
      "ĠÄĳáº§u": 481,
      "áº·c": 482,
      "áº¥p": 483,
      "áº¯c": 484,
      "Ġbá»ĭ": 485,
      "Ġhiá»ĩn": 486,
      "ĠQ": 487,
      "ĠnÃ³": 488,
      "áº·t": 489,
      "ĠNh": 490,
      "Æ°á»£ng": 491,
      "Äĥn": 492,
      "Ã¢m": 493,
      "áº»": 494,
      "á»±c": 495,
      "ĠÄĳá»Ļng": 496,
      "20": 497,
      "áº¹": 498,
      "ĠÄĳá»ĵ": 499,
      "Ä©": 500,
      "á»ı": 501,
      "Ã¡nh": 502,
      "ĠthÃłnh": 503,
      "Ġviá»ĩc": 504,
      "Ã²n": 505,
      "áº±ng": 506,
      "Ã¢u": 507,
      "±c": 508,
      "ÄĲ": 509,
      "Ã¡p": 510,
      "Æ¡i": 511,
      "ĠthÃ¬": 512,
      "Ġpháº£i": 513,
      "áº¡o": 514,
      "uyÃªn": 515,
      "iá»ģn": 516,
      "ĠnÄĥm": 517,
      "Ġto": 518,
      "iá»ĥm": 519,
      "á»ĭch": 520,
      "ĥn": 521,
      "Ġ3": 522,
      "ĠâĢ": 523,
      "Ã´n": 524,
      "Ãºc": 525,
      "oáº¡i": 526,
      "£p": 527,
      "áº¯t": 528,
      "Ġy": 529,
      "áº¡t": 530,
      "ĠngÃły": 531,
      "áº©m": 532,
      "Ġhá»įc": 533,
      "Ġtiáº¿": 534,
      "Ġ20": 535,
      "ar": 536,
      "ĠgiÃ¡": 537,
      "ĠhÆ¡n": 538,
      "Ġhá»£p": 539,
      "á»Ļc": 540,
      "Ġdo": 541,
      "ĠnÆ°á»Ľc": 542,
      "Ã¡y": 543,
      "Ġsáº£n": 544,
      "áº«n": 545,
      "ģn": 546,
      "ĠchÃŃnh": 547,
      "áº¥n": 548,
      "Ġtá»ĳ": 549,
      "uyá»ĩ": 550,
      "ĠtÃ´i": 551,
      "ĠÄĳá»ģ": 552,
      "ĠnÃªn": 553,
      "Ġnghiá»ĩ": 554,
      "Ġquan": 555,
      "Ġráº¥t": 556,
      "Ġkho": 557,
      "ĠnhÃ¢n": 558,
      "Ġsá»Ń": 559,
      "áº£ng": 560,
      "áº¿u": 561,
      "Ġthá»Ŀi": 562,
      "á»ĳng": 563,
      "ĠmÃ¬nh": 564,
      "ĠÄĳi": 565,
      "Ġcao": 566,
      "Ġgia": 567,
      "ĠcÃ¡ch": 568,
      "Æ°a": 569,
      "ĠcÃ²n": 570,
      "ĠcÃ¹ng": 571,
      "á»©ng": 572,
      "á»¥c": 573,
      "uáº¥t": 574,
      "Æ°á»Ł": 575,
      "Ġthá»©": 576,
      "Ġtháº¿": 577,
      "ĠÄĳá»ĭnh": 578,
      "Ġthá»±c": 579,
      "ĠÄĳá»ĵng": 580,
      "Æ°á»Łng": 581,
      "Ġká»": 582,
      "ĠcÆ¡": 583,
      "Ġsinh": 584,
      "Ġtheo": 585,
      "iá»ĥn": 586,
      "ia": 587,
      "áº¡nh": 588,
      "ĠtrÆ°á»Ŀng": 589,
      "ĠhÃ¬nh": 590,
      "iá»ĥu": 591,
      "ĠÄĳiá»ģu": 592,
      "Ġcon": 593,
      "Ġmá»Ľi": 594,
      "á»įn": 595,
      "ĠthÃ´ng": 596,
      "Ġsau": 597,
      "Th": 598,
      "á»ķi": 599,
      "or": 600,
      "Ġdá»±": 601,
      "iÃªu": 602,
      "ĠKh": 603,
      "ħn": 604,
      "ua": 605,
      "ĠNam": 606,
      "ĠchÃºng": 607,
      "áº¡ng": 608,
      "Ġpháº©m": 609,
      "im": 610,
      "Ġlu": 611,
      "ĠnÄĥng": 612,
      "al": 613,
      "ĠkhÃ¡ch": 614,
      "ĠÄĳang": 615,
      "Ġtin": 616,
      "ĠlÆ°á»£ng": 617,
      "ĠViá»ĩt": 618,
      "it": 619,
      "Ġcáº§n": 620,
      "ĠkhÃ¡c": 621,
      "áº¥u": 622,
      "á»£": 623,
      "Ġta": 624,
      "es": 625,
      "ĠâĢĵ": 626,
      "ĠtrÃ¬nh": 627,
      "á»ĩnh": 628,
      "ĠnhÆ°ng": 629,
      "Ġqua": 630,
      "et": 631,
      "ĠviÃªn": 632,
      "áº£m": 633,
      "ĠlÃªn": 634,
      "á»ĳc": 635,
      "Ġcáº¥p": 636,
      "uyá»ģn": 637,
      "uá»ĳc": 638,
      "ĠÄĳÃ¢y": 639,
      "Ġcháº¥t": 640,
      "Ġlá»Ľ": 641,
      "ĠlÃ½": 642,
      "áº¯n": 643,
      "á»«": 644,
      "ĠphÃ¡t": 645,
      "Ãºp": 646,
      "Ġbiáº¿t": 647,
      "ĠmÃ¡y": 648,
      "uyá»ĩn": 649,
      "ĠnÃło": 650,
      "ĠnÃ³i": 651,
      "Ġvá»¥": 652,
      "ĠhÃłnh": 653,
      "ĠnháºŃn": 654,
      "Ġquy": 655,
      "Ġxuáº¥t": 656,
      "ĠÄĳiá»ĥm": 657,
      "áºŃy": 658,
      "Ã³a": 659,
      "ĠtoÃłn": 660,
      "Ã³ng": 661,
      "Ãºt": 662,
      "ĠR": 663,
      "á»ĵi": 664,
      "Ġgian": 665,
      "Ġtá»±": 666,
      "at": 667,
      "Ġthiáº¿t": 668,
      "Ġ5": 669,
      "ĠtrÆ°á»Ľc": 670,
      "Ġloáº¡i": 671,
      "Ġ4": 672,
      "Ã¨": 673,
      "Ãªm": 674,
      "Ġkáº¿t": 675,
      "Ġmáº·t": 676,
      "á»įi": 677,
      "Ġnghiá»ĩp": 678,
      "ĠgiÃºp": 679,
      "Ġtu": 680,
      "ĠX": 681,
      "Ġtá»ĳt": 682,
      "Ġtiáº¿p": 683,
      "ĠvÃ¬": 684,
      "Ġhay": 685,
      "á»¯a": 686,
      "Ãªu": 687,
      "Ġbáº£o": 688,
      "á»Ĺ": 689,
      "Ġtáº¡o": 690,
      "á»ĵng": 691,
      "Ġbá»Ļ": 692,
      "ĠÄĳá»ĳi": 693,
      "om": 694,
      "oÃłi": 695,
      "áº¡ch": 696,
      "Ġ0": 697,
      "Ġtáº¿": 698,
      "Ġtháº¥y": 699,
      "Æ°á»Ľng": 700,
      "ĠtÃ¡c": 701,
      "Ġhiá»ĩu": 702,
      "áº¯ng": 703,
      "Ġvá»ĭ": 704,
      "Ġbáº±ng": 705,
      "Ġanh": 706,
      "Ġthá»ĭ": 707,
      "Ġcáº§u": 708,
      "ĠgÃ¬": 709,
      "ĠtÆ°": 710,
      "áº£nh": 711,
      "Ġdá»ĭch": 712,
      "ĠtÃŃnh": 713,
      "ĠtÃ¢m": 714,
      "Ġpháº§n": 715,
      "âĢ¦": 716,
      "ĠÃ½": 717,
      "Ġquáº£": 718,
      "Tr": 719,
      "ĠdÃ¢n": 720,
      "Ġchá»§": 721,
      "áº¡c": 722,
      "Ġtiá»ģn": 723,
      "ĠtÃ¬nh": 724,
      "Ġhá»Ļi": 725,
      "Ġem": 726,
      "ĠQu": 727,
      "ĠthÆ°á»Ŀng": 728,
      "uá»ĳn": 729,
      "Ġnay": 730,
      "Ġtá»ķ": 731,
      "Ġkinh": 732,
      "á»Ńa": 733,
      "Ch": 734,
      "Ġhoáº·c": 735,
      "ĠÄĥn": 736,
      "Ġbáº£n": 737,
      "...": 738,
      "ĠGi": 739,
      "uá»Ļc": 740,
      "Æ°u": 741,
      "Ġchá»įn": 742,
      "ĠnhiÃªn": 743,
      "ĠphÃ²ng": 744,
      "Ġhá»ĩ": 745,
      "ĠphÃŃ": 746,
      "ĠdÃ¹ng": 747,
      "Ġlá»Ľn": 748,
      "ĠÄĳo": 749,
      "ĠÄĳÆ°á»Ŀng": 750,
      "Ġgiáº£i": 751,
      "áº¹p": 752,
      "Ġxe": 753,
      "áº©n": 754,
      "el": 755,
      "Ġbá»ĩnh": 756,
      "uyá»ĥn": 757,
      "Ġtá»Ľi": 758,
      "Ġthá»©c": 759,
      "á»Ļng": 760,
      "á»įng": 761,
      "iá»ħn": 762,
      "ĠF": 763,
      "Ġmang": 764,
      "Ġhá»ĵ": 765,
      "ĠI": 766,
      "Ġgiá»Ľi": 767,
      "ic": 768,
      "Ġ201": 769,
      "Ġcáº£m": 770,
      "ĠÃ´ng": 771,
      "Ã¬m": 772,
      "á»Łi": 773,
      "as": 774,
      "ĠÄĳiá»ĩn": 775,
      "ĠÃ": 776,
      "Ġtrá»ĭ": 777,
      "Ġan": 778,
      "ĠquÃ¡": 779,
      "ĠphÃ¡p": 780,
      "Ġváº«n": 781,
      "Ġkáº¿": 782,
      "ĠÄĳáº¡i": 783,
      "Ġsá»ĳng": 784,
      "Ã³c": 785,
      "Æ°ng": 786,
      "ĠtÄĥng": 787,
      "Ġkhu": 788,
      "Ġtrang": 789,
      "ĠváºŃy": 790,
      "áº§m": 791,
      "Ã¡m": 792,
      "ĠyÃªu": 793,
      "Ġchá»©c": 794,
      "Ġtriá»ĥn": 795,
      "Ġáº£nh": 796,
      "ac": 797,
      "áº³": 798,
      "«a": 799,
      "Ġhai": 800,
      "á»įc": 801,
      "Ġtrá»įng": 802,
      "Ġgiá»¯": 803,
      "ĠÄĳáº¹p": 804,
      "á»Ľ": 805,
      "ĠtÃłi": 806,
      "21": 807,
      "Ãµ": 808,
      "ĠcÃ¡i": 809,
      "ĠdÆ°á»": 810,
      "ĠtáºŃp": 811,
      "ĠU": 812,
      "Ġ6": 813,
      "ĠÄĳá»ķ": 814,
      "ĠbÃłi": 815,
      "ĠthÃ¡ng": 816,
      "á»Ŀ": 817,
      "Ġmuá»ĳn": 818,
      "Ġthá»§": 819,
      "Ġtay": 820,
      "201": 821,
      "iá»ĩm": 822,
      "ĠHo": 823,
      "Ġdoanh": 824,
      "ĠE": 825,
      "ĠthÃªm": 826,
      "ĠchÆ¡i": 827,
      "Ġbiá»ĩt": 828,
      "hi": 829,
      "ĠQuá»ĳc": 830,
      "ĠtiÃªu": 831,
      "ĠhÃ³a": 832,
      "ĠcÃ´": 833,
      "ĠthÆ°Æ¡ng": 834,
      "Ġtrá»Ł": 835,
      "ĠliÃªn": 836,
      "id": 837,
      "ro": 838,
      "Ġthá»ĳng": 839,
      "Ġcá»©": 840,
      "Ġbao": 841,
      "Ġhoáº¡t": 842,
      "is": 843,
      "uá»ĳng": 844,
      "Ġchu": 845,
      "Ng": 846,
      "ĠÄĳá»ģu": 847,
      "Ġty": 848,
      "ĠbÃªn": 849,
      "ĠhoÃłn": 850,
      "Ġnhau": 851,
      "Ġláº§n": 852,
      "á»ħ": 853,
      "Nh": 854,
      "ĠtÃ¬m": 855,
      "Ġlá»±c": 856,
      "ĠnghÄ©": 857,
      "á»ĵn": 858,
      "Ġso": 859,
      "Ġcuá»Ļc": 860,
      "le": 861,
      "ĠÄĳÆ¡n": 862,
      "Ġmua": 863,
      "á»¹": 864,
      "ĠbÃ¡n": 865,
      "áº§y": 866,
      "ĠphÆ°Æ¡ng": 867,
      "áºŃu": 868,
      "ĠtrÃŃ": 869,
      "Ġá»©ng": 870,
      "Ġsao": 871,
      "áº¡m": 872,
      "áº³ng": 873,
      "Ġráº±ng": 874,
      "Ġda": 875,
      "Ġliá»ĩu": 876,
      "á»Ŀi": 877,
      "ĠW": 878,
      "iáº¿u": 879,
      "Ġváº¥n": 880,
      "ĠÃ¡n": 881,
      "Ġdáº«n": 882,
      "ĠÄĳá»ķi": 883,
      "ĠÄĳá»ĭa": 884,
      "ĠthÃ¢n": 885,
      "áº¯m": 886,
      "Ġ10": 887,
      "á»±a": 888,
      "Ġgiao": 889,
      "Ġ7": 890,
      "Ġrá»ĵi": 891,
      "Ã¬n": 892,
      "Ġtiáº¿ng": 893,
      "Ġtrung": 894,
      "ĠTrung": 895,
      "Ġbáº¥t": 896,
      "Ġchá»ĭ": 897,
      "uyáº¿n": 898,
      "Ã©t": 899,
      "ing": 900,
      "Ġtá»¥": 901,
      "Ġgiá»Ŀ": 902,
      "Ĺi": 903,
      "ol": 904,
      "Ġcháº¿": 905,
      "ĠtÃŃch": 906,
      "ĠbÃ¡o": 907,
      "Ġtá»ī": 908,
      "ĠsÃ¡ng": 909,
      "000": 910,
      "Ã©p": 911,
      "Ġlo": 912,
      "Ġquá»ĳc": 913,
      "ĠÄĳÃ¡nh": 914,
      "Ġtham": 915,
      "ĠhÃ£": 916,
      "ĠCÃ´ng": 917,
      "áº±m": 918,
      "ĠHÃł": 919,
      "Ġsá»Ł": 920,
      "áº¥m": 921,
      "ÃŃn": 922,
      "Ġsá»©c": 923,
      "ĠluÃ´n": 924,
      "ĠchuyÃªn": 925,
      "Ġvá»«a": 926,
      "ıi": 927,
      "Ġtráº»": 928,
      "ĠcÃ¡": 929,
      "Ġ8": 930,
      "Ġxem": 931,
      "áº¯p": 932,
      "ĠÄĳáº·t": 933,
      "ĠngoÃłi": 934,
      "ĠthÃŃch": 935,
      "Ġgiáº£m": 936,
      "ad": 937,
      "ĠÄĳáº·c": 938,
      "Ġcung": 939,
      "Ġnhá»ı": 940,
      "Ġchuyá»ĥn": 941,
      "£i": 942,
      "ĠchÆ°a": 943,
      "Ġ|": 944,
      "Ġmáº¯t": 945,
      "Ġmá»įi": 946,
      "Ġkhá»ı": 947,
      "Ġnáº¿u": 948,
      "ot": 949,
      "eb": 950,
      "Ġchi": 951,
      "ĠkhÃ³": 952,
      "un": 953,
      "ĠvÄĥn": 954,
      "á»ģ": 955,
      "Ġmáº¡nh": 956,
      "ĠváºŃt": 957,
      "ĠY": 958,
      "á»Ľi": 959,
      "ĠlÃºc": 960,
      "Ġw": 961,
      "Ġdá»ħ": 962,
      "Ġthi": 963,
      "us": 964,
      "Ġbiáº¿n": 965,
      "ĠmÃłu": 966,
      "Ġbáº¯t": 967,
      "áº«u": 968,
      "ĠÄĳáº¥t": 969,
      "Ġká»³": 970,
      "iÃªm": 971,
      "Ġnghá»ĩ": 972,
      "Ã²a": 973,
      "NG": 974,
      "ĠhÆ°á»Ľng": 975,
      "Ġtuá»ķi": 976,
      "Ġtrá»£": 977,
      "Ġquyáº¿t": 978,
      "Ġnhanh": 979,
      "Ġtiáº¿t": 980,
      "Ġngay": 981,
      "ĠxÃ£": 982,
      "ĠÄĳÃ¡": 983,
      "Ġná»Ļi": 984,
      "áº·p": 985,
      "ĠO": 986,
      "Ã´m": 987,
      "th": 988,
      "ed": 989,
      "á»«ng": 990,
      "Ġlá»ĭch": 991,
      "Ġvi": 992,
      "ĠphÃ¢n": 993,
      "Ġdá»±ng": 994,
      "uá»ĳi": 995,
      "áº·ng": 996,
      "Ġnghiá»ĩm": 997,
      "ĠbÃ¬nh": 998,
      "Ġchiáº¿": 999,
      "il": 1000,
      "ag": 1001,
      "ĠnÆ¡i": 1002,
      "Ġ9": 1003,
      "á»ĥ": 1004,
      "Ġtá»¥c": 1005,
      "ine": 1006,
      "Ġtá»īnh": 1007,
      "uá»ĵn": 1008,
      "Ġphá»¥c": 1009,
      "ame": 1010,
      "Ã£i": 1011,
      "Ġtrá»±c": 1012,
      "ĠAnh": 1013,
      "Ġkhiáº¿n": 1014,
      "Ġháº¿t": 1015,
      "ÃŃt": 1016,
      "ĠbÃ³ng": 1017,
      "ĠvÃ´": 1018,
      "ĠnhÃ¬n": 1019,
      "Ġgáº§n": 1020,
      "Ġphá»ĳ": 1021,
      "ĠthuáºŃt": 1022,
      "Ġphá»¥": 1023,
      "Ġtá»Ń": 1024,
      "ĠÄĳÃ¬nh": 1025,
      "Ġhá»Ļ": 1026,
      "ĠgÃ¢y": 1027,
      "ĠtiÃªn": 1028,
      "ĠtháºŃt": 1029,
      "Ġbá»Łi": 1030,
      "ĠxÃ¢y": 1031,
      ").": 1032,
      "Ġthay": 1033,
      "ĠbÃłn": 1034,
      "Ġtá»«ng": 1035,
      "ĠsÃ¡ch": 1036,
      "ĠláºŃp": 1037,
      "ĠÄĳá»Ļi": 1038,
      "ĠÄĳáº¡o": 1039,
      "Ph": 1040,
      "Ġchiáº¿n": 1041,
      "Ġlá»£i": 1042,
      "Ġbá»ı": 1043,
      "ur": 1044,
      "tr": 1045,
      "ĠtÆ°á»£ng": 1046,
      "Ġmáº¹": 1047,
      "Ġchá»©ng": 1048,
      "op": 1049,
      "áº¡y": 1050,
      "ĠÄĳÆ°a": 1051,
      "ap": 1052,
      "Ġlá»Ŀi": 1053,
      "Ġvá»±c": 1054,
      "ĠbÃ©": 1055,
      "uyá»ħn": 1056,
      "Ġthanh": 1057,
      "ĠÄĳá»§": 1058,
      "Ġná»¯": 1059,
      "Ġná»¯a": 1060,
      "Ġdu": 1061,
      "Ġkiáº¿n": 1062,
      "Ġhiá»ĥu": 1063,
      "ĠNá»Ļi": 1064,
      "Ġdiá»ĩn": 1065,
      "Ġviáº¿t": 1066,
      "ĠsÄ©": 1067,
      "Ġmá»Ĺi": 1068,
      "Ġcá»ķ": 1069,
      "Ġtruyá»ģn": 1070,
      "ĠnguyÃªn": 1071,
      "Ġvá»ĩ": 1072,
      "áº£y": 1073,
      "¯u": 1074,
      "ter": 1075,
      "¡ng": 1076,
      "Ġtinh": 1077,
      "Ġf": 1078,
      "Ġtriá»ĩu": 1079,
      "Ġmá»©c": 1080,
      "Ġtáº¥t": 1081,
      "Ã¹a": 1082,
      "Ġcá»Ńa": 1083,
      "ĠMá»¹": 1084,
      "ĠJ": 1085,
      "ĠlÃ²ng": 1086,
      "Ġsáº¯c": 1087,
      "Ġdiá»ħn": 1088,
      "á»ĵm": 1089,
      "Ġlá»±a": 1090,
      "Ġkhai": 1091,
      "uyá»ĩt": 1092,
      "iÃªng": 1093,
      "á»ģn": 1094,
      "Ġkhoáº£ng": 1095,
      "á»ĳn": 1096,
      "Ġ19": 1097,
      "oo": 1098,
      "Ġquyá»ģn": 1099,
      "Æ°á»£t": 1100,
      "ĠdÆ°á»Ľi": 1101,
      "ĠÄĳá»©": 1102,
      "Ä©nh": 1103,
      "Ġtiáº¿n": 1104,
      "ĠnháºŃp": 1105,
      "ĠdÃłi": 1106,
      "ĠtÃªn": 1107,
      "Ġcáº£nh": 1108,
      "\".": 1109,
      "ĠtÆ°Æ¡ng": 1110,
      "Ġkiá»ĩn": 1111,
      "ĠsÃ¡t": 1112,
      "Ġhoa": 1113,
      "Ġthuá»Ļc": 1114,
      "Ġchuáº©n": 1115,
      "Ġchá»ĳng": 1116,
      "Ġhá»Ĺ": 1117,
      "Ġphong": 1118,
      "Ġtá»·": 1119,
      "ĠÄĳáº¥u": 1120,
      "10": 1121,
      "Ã¡u": 1122,
      "Ã³n": 1123,
      "ui": 1124,
      "os": 1125,
      "Ġmá»¥c": 1126,
      "Ġná»ķi": 1127,
      "Ġgiá»¯a": 1128,
      "ĠAn": 1129,
      "Ġhá»¯u": 1130,
      "Ġgá»ĵm": 1131,
      "Ġtho": 1132,
      "ĠNguyá»ħn": 1133,
      "),": 1134,
      "ĠÄĳáº£m": 1135,
      "Ġcá»©u": 1136,
      "ĠÄĳa": 1137,
      "ĠkhÃŃ": 1138,
      "ĠxÃ¡c": 1139,
      "Ġchiáº¿c": 1140,
      "uyáº¿t": 1141,
      "ĠtÃŃn": 1142,
      "iáº¿m": 1143,
      "Ġháº¡n": 1144,
      "ĠgiÃ¡o": 1145,
      "Ġhá»ıi": 1146,
      "áº¿p": 1147,
      "ĠcÃ¢u": 1148,
      "Äĳ": 1149,
      "ĠÃ¡p": 1150,
      "Kh": 1151,
      "Ġtra": 1152,
      "oi": 1153,
      "ĠcÃ¢y": 1154,
      "Ġkháº£": 1155,
      "Ġchuyá»ĩn": 1156,
      "Ġin": 1157,
      "ĠchÃ¢n": 1158,
      "ĠÄĳá»Ŀi": 1159,
      "ĠÄĳÃºng": 1160,
      "Ġyáº¿u": 1161,
      "ĠÄĳáº§y": 1162,
      "Ġ,": 1163,
      "ĠchÃŃ": 1164,
      "Ġai": 1165,
      "Ġcá»±c": 1166,
      "Ġchung": 1167,
      "Ġquáº£n": 1168,
      "Ġmá»Ł": 1169,
      "ĠgÃ³": 1170,
      "22": 1171,
      "Ġgáº·p": 1172,
      "Ġkiá»ĥm": 1173,
      "ĠcÃłng": 1174,
      "ĠphÃ¹": 1175,
      "Ġminh": 1176,
      "á»ķng": 1177,
      "Ġnhu": 1178,
      "19": 1179,
      "ĠTrong": 1180,
      "Ġban": 1181,
      "Ãłm": 1182,
      "Ġká»¹": 1183,
      "ĠlÃ£": 1184,
      "Ġ12": 1185,
      "Ġmáº«u": 1186,
      "Ġtá»ĳi": 1187,
      "ĠBÃ¬nh": 1188,
      "Ġáº¥y": 1189,
      "ĠCÃ¡c": 1190,
      "06": 1191,
      "Ġthuá»ĳc": 1192,
      "Ãłu": 1193,
      "Ġcáº¡nh": 1194,
      "Ġgá»įi": 1195,
      "Ġcá»ĳ": 1196,
      "Ġ.": 1197,
      "ĠnghÄ©a": 1198,
      "Ġmáº¥t": 1199,
      "Ġchia": 1200,
      "ĠlÆ°u": 1201,
      "ĠrÃµ": 1202,
      "ĠÃŃt": 1203,
      "ĠhÆ°á»Łng": 1204,
      "ĠkÃ½": 1205,
      "ĠTP": 1206,
      "2021": 1207,
      "Ã¢ng": 1208,
      "Ġdung": 1209,
      "Ġnhiá»ĩm": 1210,
      "ĠBá»Ļ": 1211,
      "ĠÄĳáº¡t": 1212,
      "įng": 1213,
      "ent": 1214,
      "áºŃm": 1215,
      "Æ°Æ¡i": 1216,
      "ĠtráºŃn": 1217,
      "ĠcÄĥn": 1218,
      "ĠbÃł": 1219,
      "ĠhÃ£y": 1220,
      "Ġsang": 1221,
      "Ġmáº¡ng": 1222,
      "ĠquÃ½": 1223,
      "Ġca": 1224,
      "ĠcÃ¡o": 1225,
      "ion": 1226,
      "ĠVÄĥn": 1227,
      "Ġláº¥y": 1228,
      "Ġcá»¥": 1229,
      "Ġtá»©": 1230,
      "ĠMinh": 1231,
      "Ġrá»Ļng": 1232,
      "Ġbu": 1233,
      "Ã³m": 1234,
      "ĠváºŃn": 1235,
      "Ġdáº¡ng": 1236,
      "ph": 1237,
      "ĠNáº¿u": 1238,
      "ĠkhÃ¡": 1239,
      "ĠthÆ°": 1240,
      "Ġtiá»ĩn": 1241,
      "áº©u": 1242,
      "âĢĵ": 1243,
      "Ġdanh": 1244,
      "Ġtranh": 1245,
      "11": 1246,
      "ĠÄĳÄĥng": 1247,
      "Ġgiáº£": 1248,
      "ĠtrÃ²": 1249,
      "ĠkÃ©": 1250,
      "ow": 1251,
      "Ġnguá»ĵn": 1252,
      "Ġkhá»ıe": 1253,
      "Ġ15": 1254,
      "um": 1255,
      "ĠÃ¢m": 1256,
      "ĠdÃ¹": 1257,
      "ĠÄĳá»Ļc": 1258,
      "12": 1259,
      "Ġthoáº¡i": 1260,
      "Ġbá»ĳ": 1261,
      "com": 1262,
      "Ġgame": 1263,
      "Ġtráº£": 1264,
      "á»Ĺi": 1265,
      "ĠtÆ°á»Łng": 1266,
      "Ã¨o": 1267,
      "Ġnam": 1268,
      "Ġbiá»ĥu": 1269,
      "Ġtá»ķng": 1270,
      "ĠngÃłnh": 1271,
      "ĠdÆ°á»¡ng": 1272,
      "ĠtrÆ°á»Łng": 1273,
      "Ġ:": 1274,
      "ĠNgh": 1275,
      "Ġchá»©": 1276,
      "Ġdi": 1277,
      "Ġba": 1278,
      "áºµ": 1279,
      "Ġxuá»ĳng": 1280,
      "Ġvui": 1281,
      "âĢĿ": 1282,
      "re": 1283,
      "line": 1284,
      "áº¡p": 1285,
      "ĠÄĳÃ¡ng": 1286,
      "Ġtráº¡ng": 1287,
      "Ġtháº§n": 1288,
      "Ġlá»ĩ": 1289,
      "ĠriÃªng": 1290,
      "ĠÄĳoÃłn": 1291,
      "ĠvÃ¹ng": 1292,
      "ĠchÃº": 1293,
      "ĠphÃŃa": 1294,
      "one": 1295,
      "ie": 1296,
      "ou": 1297,
      "ĠtoÃ¡n": 1298,
      "Ġcuá»ĳi": 1299,
      "ĠTuy": 1300,
      "Ġcháº¯c": 1301,
      "ĠÄĲáº¡i": 1302,
      "ĠnhÃ©": 1303,
      "Ġtuyáº¿n": 1304,
      "áº©y": 1305,
      "Ġtá»©c": 1306,
      "Ġxá»Ń": 1307,
      "ĠlÃ¢u": 1308,
      "iá»ĩp": 1309,
      "ĠdÃ²ng": 1310,
      "Ġweb": 1311,
      "Ġnghe": 1312,
      "ĠmÃ´i": 1313,
      "Ġuá»ĳng": 1314,
      "ĠvÃłng": 1315,
      "Ġkhoa": 1316,
      "iv": 1317,
      "ĳng": 1318,
      "NH": 1319,
      "ĠThanh": 1320,
      "Ġphim": 1321,
      "Ãºi": 1322,
      "Ġbay": 1323,
      "ĠÆ°u": 1324,
      "ĠÄĳÃ¢u": 1325,
      "Ġkhoáº£n": 1326,
      "Ġchá»ĭu": 1327,
      "ĠTH": 1328,
      "Ġo": 1329,
      "\",": 1330,
      "ig": 1331,
      "ĠmÃ³n": 1332,
      "Ġgh": 1333,
      "ĠchÆ°Æ¡ng": 1334,
      "Ġdá»¥c": 1335,
      "Trong": 1336,
      "Ġlá»Ľp": 1337,
      "Ġ11": 1338,
      "Ġká»ĥ": 1339,
      "and": 1340,
      "ĠbÆ°á»Ľc": 1341,
      "á»Ńi": 1342,
      "ĠdÃłnh": 1343,
      "áº¢": 1344,
      "ĠluáºŃt": 1345,
      "lo": 1346,
      "Ġviá»ĩn": 1347,
      "ĠâĢľ": 1348,
      "ĠluáºŃn": 1349,
      "Æ°á»Ľi": 1350,
      "Ġsáº»": 1351,
      "ĠÄĳoáº¡n": 1352,
      "Ġtháº¥t": 1353,
      "ĠÃ¡o": 1354,
      "ĠÃŃch": 1355,
      "ĠÄĲá»©c": 1356,
      "ĠnÃ¢ng": 1357,
      "á»³": 1358,
      "ĠquÃ¢n": 1359,
      "Gi": 1360,
      "Ġtuyá»ĩt": 1361,
      "Ã¹i": 1362,
      "á»ĳt": 1363,
      "Ġgiá»ĳng": 1364,
      "up": 1365,
      "Ġthiá»ĩn": 1366,
      "á»§y": 1367,
      "Ġkiáº¿m": 1368,
      "ĠvÃ²ng": 1369,
      "Ã£n": 1370,
      "ND": 1371,
      "ĠCÃ³": 1372,
      "vn": 1373,
      "ĠChÃŃnh": 1374,
      "ĠhÃ´m": 1375,
      "ip": 1376,
      "Ġhoáº¡ch": 1377,
      "Ġxa": 1378,
      "ĠThÃłnh": 1379,
      "Ġtháº¯ng": 1380,
      "ĠNhÃł": 1381,
      "Ġ30": 1382,
      "ĠkÃŃch": 1383,
      "ĠMá»Ļt": 1384,
      "ĠdÃłng": 1385,
      "Ġtáº£i": 1386,
      "ĠgÃ¡i": 1387,
      "ĠIn": 1388,
      "CM": 1389,
      "Ġsuáº¥t": 1390,
      "á»ĭp": 1391,
      "Ġbiá»ĥn": 1392,
      "Ġkháº©u": 1393,
      "ĠÄĳÃ´i": 1394,
      "Ġnháº±m": 1395,
      "Ġhá»ĵi": 1396,
      "ov": 1397,
      "CÃ¡c": 1398,
      "ĠthÆ¡": 1399,
      "Ġgiáº£n": 1400,
      "Ġnghá»ĭ": 1401,
      "Ġphá»§": 1402,
      "ĠÄĳau": 1403,
      "ĠsÃ¢n": 1404,
      "ĠphÃ©p": 1405,
      "ite": 1406,
      "ĠNháºŃt": 1407,
      "ĠmÃ¹a": 1408,
      "ĠKhÃ´ng": 1409,
      "Ġváº»": 1410,
      ".\"": 1411,
      "ĠcáºŃp": 1412,
      "ĠhÃºt": 1413,
      "iá»ģm": 1414,
      "ĠtrÃ¡i": 1415,
      "iá»ħ": 1416,
      "Ġnhiá»ĩt": 1417,
      "ĠÄĳÃ´ng": 1418,
      "Ã¨n": 1419,
      "uÃ¢n": 1420,
      "ec": 1421,
      "Ġcam": 1422,
      "Ġxanh": 1423,
      "Ġ/": 1424,
      "ak": 1425,
      "ĠmÃ´": 1426,
      "ĠhÃ²a": 1427,
      "Ġá»": 1428,
      "ĠBáº¡n": 1429,
      "Ġná»ģn": 1430,
      "88": 1431,
      "Ġthiáº¿u": 1432,
      "Ġxin": 1433,
      "ex": 1434,
      "ĠbÃ¡c": 1435,
      "Ġ2021": 1436,
      "ĠcÆ°": 1437,
      "Ġvá»įng": 1438,
      "Ãģ": 1439,
      "ub": 1440,
      "Ġdáº§u": 1441,
      "ĠnháºŃt": 1442,
      "Ġpháº¡m": 1443,
      "ĠphÃºt": 1444,
      "ĠSau": 1445,
      "Ġvá»ĳn": 1446,
      "ĠthÆ°á»Łng": 1447,
      "Ġngá»§": 1448,
      "ĠÄĲÃ´ng": 1449,
      "ĠÄĳÃ¡p": 1450,
      "ĠKhi": 1451,
      "Ġcá»Ļng": 1452,
      "Ġhuyá»ĩn": 1453,
      "ĠÄĳá»į": 1454,
      "oc": 1455,
      "ĠÃģ": 1456,
      "Ġnhá»Ľ": 1457,
      "Ã£y": 1458,
      "Ġ...": 1459,
      "ĠVá»Ľi": 1460,
      "ĠgÃ³p": 1461,
      "ĠNhá»¯ng": 1462,
      "Ġnáº±m": 1463,
      "ĠHá»Ļi": 1464,
      "ĠxÃ©t": 1465,
      "Ġtráº¯ng": 1466,
      "ĠkhÄĥn": 1467,
      "ĠgiÃ¡c": 1468,
      "ĠÄĳÃ³ng": 1469,
      "Ġghi": 1470,
      "ĠphÃ¡": 1471,
      "ĠvÃłi": 1472,
      "ĠNhÆ°ng": 1473,
      "Ġuy": 1474,
      "ģm": 1475,
      "Ġtuáº§n": 1476,
      "ĠÄĳÃłn": 1477,
      "ul": 1478,
      "Ġkhá»ıi": 1479,
      "ĠBáº¯c": 1480,
      "Ġháº¯n": 1481,
      "Ġngoáº¡i": 1482,
      "ĠsÆ¡": 1483,
      "Ġsáº¡ch": 1484,
      "áº§ng": 1485,
      "Ġcháº¡y": 1486,
      "ĠÄĳá»įc": 1487,
      "ĠÄĲÃ¢y": 1488,
      "Ġgá»Ńi": 1489,
      "od": 1490,
      "ĠnÃłng": 1491,
      "ÃĢ": 1492,
      "uÃ´i": 1493,
      "Ġlao": 1494,
      "«ng": 1495,
      "ĠnhÃ³m": 1496,
      "ĠThá»ĭ": 1497,
      "Ġ18": 1498,
      "Ġchá»¯a": 1499,
      "Theo": 1500,
      "Ġtrá»Ŀi": 1501,
      "Ġnháº¹": 1502,
      "ĠHá»ĵ": 1503,
      "ÃĶ": 1504,
      "ĠcÃ¢n": 1505,
      "Ġmá»ģm": 1506,
      "Ġbáº¡c": 1507,
      "ĠsÃ¢u": 1508,
      "Ġi": 1509,
      "ĠÄĳá»©ng": 1510,
      "iet": 1511,
      "Ġchiá»ģu": 1512,
      "ĠDÆ°Æ¡ng": 1513,
      "50": 1514,
      "Ġ200": 1515,
      "ĠmÃ´n": 1516,
      "Ġphá»ĳi": 1517,
      "Ġtráº£i": 1518,
      "era": 1519,
      "ĠÄĲá»ĵng": 1520,
      "ĠchÃ³ng": 1521,
      "Ãºa": 1522,
      "ĠnghiÃªn": 1523,
      "ĠHoÃłng": 1524,
      "Ġcáº£i": 1525,
      "Ġcháº¿t": 1526,
      "Ġbá»ķ": 1527,
      "ĠLong": 1528,
      "ĠmÃ¡i": 1529,
      "ĠtrÃ¡nh": 1530,
      "ĠchÃºt": 1531,
      "ĠHoa": 1532,
      "Ġá»ķ": 1533,
      "Ġtá»ĭ": 1534,
      "ĠchÄĥm": 1535,
      "Ġmong": 1536,
      "Ã³i": 1537,
      "Ġháº¥p": 1538,
      "Ġchá»īnh": 1539,
      "Ġláº¡nh": 1540,
      "ĠThu": 1541,
      "Ġmiá»ħn": 1542,
      "á»£i": 1543,
      "ir": 1544,
      "ĠNgÆ°á»Ŀi": 1545,
      "Ġon": 1546,
      "Ġ16": 1547,
      "Ġráº»": 1548,
      "Má»Ļt": 1549,
      "ĠháºŃu": 1550,
      "Ġnghá»ī": 1551,
      "ĠVÃ¬": 1552,
      "ĠHáº£i": 1553,
      "ĠnÃ³ng": 1554,
      "ĠTÃ¢y": 1555,
      "ail": 1556,
      "á»Ļn": 1557,
      "Ġ100": 1558,
      "oa": 1559,
      "ĠngÃ¢n": 1560,
      "Ġmá»¹": 1561,
      "Ġ13": 1562,
      "Ġnguy": 1563,
      "Ġmáº¯c": 1564,
      "ĠthÃ¡i": 1565,
      "Ġ14": 1566,
      "te": 1567,
      "ook": 1568,
      "Ġpháº£n": 1569,
      "ĠthuáºŃn": 1570,
      "Ġcháº³ng": 1571,
      "ĠÄĳáº£o": 1572,
      "Ġkháº£o": 1573,
      "ĠThÃ¡i": 1574,
      "ew": 1575,
      "Ġvay": 1576,
      "á»¡": 1577,
      "ĠxuyÃªn": 1578,
      "ik": 1579,
      "ĠDo": 1580,
      "ĠmÃ¡u": 1581,
      "ĠkhÃ¡m": 1582,
      "Ġ09": 1583,
      "Ġduy": 1584,
      "ĠÄĳá»ı": 1585,
      "ĠÄĲiá»ģu": 1586,
      "ĠBan": 1587,
      "ĠSÆ¡n": 1588,
      "iá»ħm": 1589,
      "ĠChá»§": 1590,
      "tt": 1591,
      "Ġnghiá»ģn": 1592,
      "Ġchá»ĵng": 1593,
      "ĠÃ´": 1594,
      "ab": 1595,
      "av": 1596,
      "Ġvá»£": 1597,
      "Ġsá»Ńa": 1598,
      "Ġnháº¡c": 1599,
      "Ġtáº§ng": 1600,
      "Ġgiáº¥y": 1601,
      "ĠÃ¡nh": 1602,
      "ĠmÃ£": 1603,
      "ĠmÃłn": 1604,
      "ĠÄĳÃ´": 1605,
      "Ġ'": 1606,
      "ĠkÃ©o": 1607,
      "Ġná»ĳi": 1608,
      "ĠhÃ£ng": 1609,
      "Ġcháº¯n": 1610,
      "kh": 1611,
      "Ġ24": 1612,
      "ĠxÃºc": 1613,
      "Ġtuyá»ĥn": 1614,
      "Ġtháº¥p": 1615,
      "á»«a": 1616,
      "Ã¹y": 1617,
      "ĠÄĳem": 1618,
      "Æ¯": 1619,
      "Ġlá»ħ": 1620,
      "Ġvai": 1621,
      "ĠTÃ´i": 1622,
      "Nhá»¯ng": 1623,
      "Ġmáº¡i": 1624,
      "ĠtáºŃn": 1625,
      "ĠmáºŃt": 1626,
      "ĠhÆ¡i": 1627,
      "ĠbÃ¡nh": 1628,
      "ĠkhÃ³a": 1629,
      "ĠcÆ°á»Ŀi": 1630,
      "ĠphiÃªn": 1631,
      "Ġtá»ĭch": 1632,
      "30": 1633,
      "ĠUS": 1634,
      "ob": 1635,
      "Ġthá»Ń": 1636,
      "Náº¿u": 1637,
      "ĠdÃ¢y": 1638,
      "ĠVÃł": 1639,
      "Ġhiá»ĥm": 1640,
      "áº·n": 1641,
      "ĠÂ": 1642,
      "ĠtÃ³c": 1643,
      "Ġquay": 1644,
      "ĠsiÃªu": 1645,
      "ĠthÃ´i": 1646,
      "Ġmay": 1647,
      "Ġxáº£y": 1648,
      "ĠlÄ©nh": 1649,
      "art": 1650,
      "ĠthiÃªn": 1651,
      "á»Ľm": 1652,
      "ĠHÃłn": 1653,
      "ĠkÃŃnh": 1654,
      "ĠTá»ķng": 1655,
      "uá»ĳt": 1656,
      "ĠkÃª": 1657,
      "Ġchá»Ĺ": 1658,
      "Ġnghá»ģ": 1659,
      "ĠthuÃª": 1660,
      "Ġmiá»ģn": 1661,
      "ĠthÃº": 1662,
      "ĠtrÃ¡ch": 1663,
      "Ġquanh": 1664,
      "ĠÄĳÃło": 1665,
      "Ġháº¡i": 1666,
      "Báº¡n": 1667,
      "ĠvÆ°á»£t": 1668,
      "ess": 1669,
      "áºµn": 1670,
      "ĠsÆ°": 1671,
      "á»·": 1672,
      "ĠÃĤ": 1673,
      "Ìģ": 1674,
      "ĠlÃ£nh": 1675,
      "Ġdáº¥u": 1676,
      "ĠZ": 1677,
      "ĠÄĳÃªm": 1678,
      "Ġngon": 1679,
      "ĠBáº£n": 1680,
      "ĠlÃ¡": 1681,
      "Ġkiá»ĥu": 1682,
      "Ãµi": 1683,
      "Ġtai": 1684,
      "Ġháº¡": 1685,
      "ĠÄĳáº©y": 1686,
      "ĠcÆ°á»Ŀng": 1687,
      "Ġthao": 1688,
      "Ġsá»¯a": 1689,
      "Vá»Ľi": 1690,
      "Ġcháº¥p": 1691,
      "Ġbuá»ķi": 1692,
      "ĠbáºŃt": 1693,
      "Ġhuy": 1694,
      "Ġmáº·c": 1695,
      "Ġa": 1696,
      "Ġkháº¯c": 1697,
      "á»įt": 1698,
      "ĠThiÃªn": 1699,
      "Ġtá»ĳc": 1700,
      "Ġtrai": 1701,
      "oÃłn": 1702,
      "ĠsÃ³c": 1703,
      "Ġsá»Ľm": 1704,
      "ĠngÃ´i": 1705,
      "Ġ17": 1706,
      "Ġphá»ķ": 1707,
      "ĠTrÆ°á»Ŀng": 1708,
      "Ġgá»Ĺ": 1709,
      "ĠhÆ°Æ¡ng": 1710,
      "Ġluyá»ĩn": 1711,
      "Ġthá»§y": 1712,
      "Ġtháº©m": 1713,
      "Ã¨m": 1714,
      "Ġkia": 1715,
      "iáº¿p": 1716,
      "HCM": 1717,
      "Ġáº¥n": 1718,
      "ĠTráº§n": 1719,
      "ıa": 1720,
      "Ġnhiá»ħm": 1721,
      "á»§ng": 1722,
      "ĠtÆ°á»Ľng": 1723,
      "ity": 1724,
      "....": 1725,
      "ĠTá»«": 1726,
      "ĠChÃ¢u": 1727,
      "ĠnÃ´ng": 1728,
      "uc": 1729,
      "Ġnhá»Ŀ": 1730,
      "est": 1731,
      "ĠtrÃ¬": 1732,
      "Ġchá»©a": 1733,
      "Ġlinh": 1734,
      "Ġlá»Ļ": 1735,
      "ĠCH": 1736,
      "Ġnáº·ng": 1737,
      "Ġá»ķn": 1738,
      "Ġsuy": 1739,
      "ĠrÄĥng": 1740,
      "//": 1741,
      "ĠPhÃº": 1742,
      "ĠcÆ°á»£c": 1743,
      "site": 1744,
      "Ġthai": 1745,
      "CÃ³": 1746,
      "Ġsáºµn": 1747,
      "Ġbá»¥": 1748,
      "Ġtiá»ĥu": 1749,
      "ĠNgoÃłi": 1750,
      "Ġ2020": 1751,
      "Sau": 1752,
      "ttp": 1753,
      "Ġquen": 1754,
      "KhÃ´ng": 1755,
      "Ã£o": 1756,
      "ark": 1757,
      "2020": 1758,
      "if": 1759,
      "á»ĭa": 1760,
      "ĠPhÃ¡p": 1761,
      "ĠÃĶ": 1762,
      "Ġquáº§n": 1763,
      "ĠÄĲÃł": 1764,
      "ut": 1765,
      "ĠnuÃ´i": 1766,
      "Ġchá»¯": 1767,
      "Ġ&": 1768,
      "ĠLan": 1769,
      "15": 1770,
      "Ġngá»ĵi": 1771,
      "ĠchÃ¢u": 1772,
      "://": 1773,
      "Iá»": 1774,
      "ra": 1775,
      "Ġkhá»Łi": 1776,
      "ĠtÆ°Æ¡i": 1777,
      "áº¢nh": 1778,
      "Ġká»·": 1779,
      "24": 1780,
      "áº¤": 1781,
      "ack": 1782,
      "ĠLiÃªn": 1783,
      "ĠquÃ¡n": 1784,
      "iáº¿ng": 1785,
      "Ġsai": 1786,
      "Å©i": 1787,
      "ue": 1788,
      "ĠquáºŃn": 1789,
      "Ġláº½": 1790,
      "Ġcáº¥u": 1791,
      "Ġniá»ĩm": 1792,
      "ĠthÃºc": 1793,
      "25": 1794,
      "ĠChÃºng": 1795,
      "ĠTheo": 1796,
      "ĠSh": 1797,
      "ĠcáºŃu": 1798,
      "Ġbáº£ng": 1799,
      "Ġtáº§m": 1800,
      "Ġtáº·ng": 1801,
      "Ġliá»ģn": 1802,
      "Ġgiai": 1803,
      "ard": 1804,
      "st": 1805,
      "Ġlá»Ĺi": 1806,
      "ĠviÃªm": 1807,
      "ĠngÄĥn": 1808,
      "23": 1809,
      "ĠÄĲá»ĥ": 1810,
      "ev": 1811,
      "ĠChÃŃ": 1812,
      "Ġtáº¥n": 1813,
      "Ġthiá»ĩu": 1814,
      "ıng": 1815,
      "Ġxáº¿p": 1816,
      "Ġngá»Ŀ": 1817,
      "ĠLÃª": 1818,
      "ĠMÃ¡y": 1819,
      "Qu": 1820,
      "ĠÄĳen": 1821,
      "ĠLu": 1822,
      "ãĢ": 1823,
      "ĠTu": 1824,
      "Ġcáº¯t": 1825,
      "Ġmáº¥y": 1826,
      "Ġbáº¿p": 1827,
      "TT": 1828,
      "Ġláº¡c": 1829,
      "ort": 1830,
      "Ġtháº£o": 1831,
      "net": 1832,
      "ĠTrang": 1833,
      "Ġthá»ĭt": 1834,
      "ĠsoÃ¡t": 1835,
      "Khi": 1836,
      "ĠgiÃ¡m": 1837,
      "áº¹n": 1838,
      "Ġsá»£": 1839,
      "Ġdáº¡y": 1840,
      "Ġ25": 1841,
      "ĠTháº¿": 1842,
      "09": 1843,
      "01": 1844,
      "Ġnghi": 1845,
      "ĠNgá»įc": 1846,
      "Ġkim": 1847,
      "Ġláº¯p": 1848,
      "Ã²i": 1849,
      "Ġngá»¯": 1850,
      "ĠQuáº£ng": 1851,
      "ĠTÃ¢n": 1852,
      "Ġháº¡ng": 1853,
      "Ġ50": 1854,
      "Ì£": 1855,
      "ĠThá»§": 1856,
      "ĠcÅ©": 1857,
      "ers": 1858,
      "ĠUSD": 1859,
      "ĠGiang": 1860,
      "ep": 1861,
      "Ġsung": 1862,
      "ĠdÃ¡ng": 1863,
      "ĠtÃ´": 1864,
      "18": 1865,
      "ĠkhÃ´": 1866,
      "05": 1867,
      "ideo": 1868,
      "ĠniÃªn": 1869,
      "ĠhÃłi": 1870,
      "á»ĭnh": 1871,
      "ĠngÅ©": 1872,
      "ĠmÆ¡": 1873,
      "ĠNguyÃªn": 1874,
      "Ġtháº³ng": 1875,
      "14": 1876,
      "ĠâĢ¦": 1877,
      "ĠthÄĥm": 1878,
      "ff": 1879,
      "Ġthe": 1880,
      "Ġgá»ĳc": 1881,
      "16": 1882,
      "ĠcÃ¡nh": 1883,
      "Ġláº¡": 1884,
      "ĠÄĳÃ¨n": 1885,
      "Ġtuy": 1886,
      "Ġháº¡t": 1887,
      "á»¥p": 1888,
      "Ġcáº§m": 1889,
      "CÃ´ng": 1890,
      "Ġtim": 1891,
      "ĠnghiÃªm": 1892,
      "Ġdá»¯": 1893,
      "ĠKá»³": 1894,
      "ĠyÃªn": 1895,
      "Ġbáº§u": 1896,
      "Ġrá»Ńa": 1897,
      "Ġkiá»ĩm": 1898,
      "ĠChá»ī": 1899,
      "ĠCÃ¡ch": 1900,
      "ĠthÃ¡c": 1901,
      "Ġonline": 1902,
      "ly": 1903,
      "Ġmá»ĳi": 1904,
      "Ġbá»ģn": 1905,
      "ÌĢ": 1906,
      "2019": 1907,
      "Ġ2018": 1908,
      "ĠÄĳÃŃch": 1909,
      "07": 1910,
      "ok": 1911,
      "ĠÄĳÃ³n": 1912,
      "ĠHu": 1913,
      "Ġbuá»Ļc": 1914,
      "age": 1915,
      "Ġ2019": 1916,
      "Ġlá»įc": 1917,
      "Ġtá»Ļc": 1918,
      "08": 1919,
      "CÃ¡ch": 1920,
      "ĠnÃ©t": 1921,
      "ĠVN": 1922,
      "Ġdáº§n": 1923,
      "ile": 1924,
      "Ġcoi": 1925,
      "Ġvá»Ŀi": 1926,
      "ore": 1927,
      "ĠKim": 1928,
      "Ġsh": 1929,
      "ht": 1930,
      "Ġ+": 1931,
      "ord": 1932,
      "ĠÄĳá»ĳc": 1933,
      "ĠÄĲáº£ng": 1934,
      "BND": 1935,
      "Ġchá»Ŀ": 1936,
      "ĠtÃłu": 1937,
      "ĠHÃ²a": 1938,
      "ĠKinh": 1939,
      "Ġvá»¯": 1940,
      "Ġhá»ĵng": 1941,
      "ĠXuÃ¢n": 1942,
      "ate": 1943,
      "ĠViet": 1944,
      "ĠPhÆ°Æ¡ng": 1945,
      "Ġbá»©c": 1946,
      "iá»ĩng": 1947,
      "13": 1948,
      "ĠphÃºc": 1949,
      "Ġcha": 1950,
      "ÄĲá»ĥ": 1951,
      "Ġxo": 1952,
      "Ġ[": 1953,
      "ĠNinh": 1954,
      "ĠphÃª": 1955,
      "TÃ´i": 1956,
      "Ġ22": 1957,
      "Ġdá»ĭ": 1958,
      "Ġsáº¡n": 1959,
      "ill": 1960,
      ",âĢ¦": 1961,
      "ĠtÃ¹y": 1962,
      "Ġtrao": 1963,
      "Ġsáº¯p": 1964,
      "ĠPhÃ²ng": 1965,
      "Ġxong": 1966,
      "Ġcá»Ń": 1967,
      "Ġáº©m": 1968,
      "Ġkhá»ĳi": 1969,
      "io": 1970,
      "Ġngáº¯n": 1971,
      "Ġtá»Ļi": 1972,
      "ĠLe": 1973,
      "á»ĩt": 1974,
      "Ġthá»¥": 1975,
      "ĠThÃ´ng": 1976,
      "ĠbÃŃ": 1977,
      "Ã³t": 1978,
      "á»¥n": 1979,
      "ĠhÃ´n": 1980,
      "ink": 1981,
      "ĠBáº£o": 1982,
      "Ġ23": 1983,
      "Ġnáº¡n": 1984,
      "ien": 1985,
      "Ġtá»ĵ": 1986,
      "ĠÃĤu": 1987,
      "ĠHÃ£y": 1988,
      "ĠtrÃºc": 1989,
      "ĠbÃło": 1990,
      "Ġquáº£ng": 1991,
      "ĠTR": 1992,
      "Ġly": 1993,
      "ain": 1994,
      "ĠcÃ¡n": 1995,
      "Ġhá»©": 1996,
      "Ġmáº¡ch": 1997,
      "ĠthÆ°á»Ľc": 1998,
      "Ġlai": 1999,
      "ĠÄĳoÃ¡n": 2000,
      "Æ°á»Ŀn": 2001,
      "ĠCon": 2002,
      "ĠGiÃ¡": 2003,
      "04": 2004,
      "Ġmiá»ĩng": 2005,
      "Ġtáº¯c": 2006,
      "ĠgÃ³i": 2007,
      "ĠSt": 2008,
      "ĠmÃ¡t": 2009,
      "2018": 2010,
      "ĠNga": 2011,
      "Ġháº§u": 2012,
      "03": 2013,
      "Ġsuá»ĳt": 2014,
      "Ġxu": 2015,
      "Xem": 2016,
      "ĠrÃłng": 2017,
      "ĠPháºŃt": 2018,
      "ĠpháºŃn": 2019,
      "ĠhÃ¡t": 2020,
      "Ġ21": 2021,
      "ome": 2022,
      "ĠmÃ£i": 2023,
      "Æ°á»£u": 2024,
      "ĠChÃºa": 2025,
      "ĠgÃł": 2026,
      "Thá»©": 2027,
      "?\"": 2028,
      "Ġnáº¯m": 2029,
      "Ġbá»Ļt": 2030,
      "áºµng": 2031,
      "Ġvá»¯ng": 2032,
      "ĠdÃµi": 2033,
      "ce": 2034,
      "Ġhuyáº¿t": 2035,
      "Ġtháº»": 2036,
      "Æ°á»¡ng": 2037,
      "ist": 2038,
      "Ġthuáº¿": 2039,
      "Ä©a": 2040,
      "Ġháº¡nh": 2041,
      "ĠÃĶng": 2042,
      "Ġáº¥m": 2043,
      "NgÃły": 2044,
      "ĠSá»Ł": 2045,
      "ĠGia": 2046,
      "ĠVÅ©": 2047,
      "Ġko": 2048,
      "ĠmÃª": 2049,
      "ĠBa": 2050,
      "ĠlÆ°á»£t": 2051,
      "ĠcÃł": 2052,
      "ĠkÃ©m": 2053,
      "Ġtruy": 2054,
      "iz": 2055,
      "Ġwebsite": 2056,
      "ebook": 2057,
      "Ġtrá»ĵng": 2058,
      "02": 2059,
      "og": 2060,
      "ĠÆ¡n": 2061,
      "17": 2062,
      "Ġkáº»": 2063,
      "ĠtÃ¡i": 2064,
      "ĠquÃł": 2065,
      "Ġxung": 2066,
      "ĠCam": 2067,
      "ĠdÆ°Æ¡ng": 2068,
      "co": 2069,
      "ĠbÃły": 2070,
      "ĠsÃ´ng": 2071,
      "Ġláº¯ng": 2072,
      "ĠsÃłng": 2073,
      "ĠsÃłn": 2074,
      "ĠÄĳÃ¡o": 2075,
      "Ġbiá»ĩn": 2076,
      "200": 2077,
      "ĠTáº¡i": 2078,
      "Ġhá»įa": 2079,
      "ass": 2080,
      "Ġthoáº£i": 2081,
      "ĠÄĳáº¥y": 2082,
      "ax": 2083,
      "CH": 2084,
      "ĠHá»ĵng": 2085,
      "ww": 2086,
      "Ġláº¯m": 2087,
      "ĠlÃłn": 2088,
      "ĠUBND": 2089,
      "Ġdá»±a": 2090,
      "ĠPhong": 2091,
      "Ġchiáº¿u": 2092,
      "ĠtrÃ¹ng": 2093,
      "ĠLinh": 2094,
      "Ġmu": 2095,
      "all": 2096,
      "ĠThÃ¡ng": 2097,
      "Ġcamera": 2098,
      "ĠLÃ½": 2099,
      "ĠlÃłnh": 2100,
      "ĠtuyÃªn": 2101,
      "Ġgháº¿": 2102,
      "ĠkÃ¨m": 2103,
      "Ġcuá»ĳn": 2104,
      "Ġkhuyáº¿n": 2105,
      "acebook": 2106,
      "ĠkÃ¨o": 2107,
      "ĠGiá»": 2108,
      "ĠTin": 2109,
      "ĠnhiÃªu": 2110,
      "Ġthá»«a": 2111,
      "Ġchuyáº¿n": 2112,
      "Ġphiáº¿u": 2113,
      "ĠÂ»": 2114,
      "ĠNH": 2115,
      "NgÆ°á»Ŀi": 2116,
      "NgoÃłi": 2117,
      "ĠngÆ°Æ¡i": 2118,
      "ãĢĤ": 2119,
      "áº¥c": 2120,
      "ĠNgÃły": 2121,
      "ĠHá»": 2122,
      "á»Ľp": 2123,
      "ĠrÃºt": 2124,
      "ĠvÃ©": 2125,
      "ĠNáºµng": 2126,
      "ĠmÅ©i": 2127,
      "Ġnháº¯c": 2128,
      "ĠNhÃ¢n": 2129,
      "Ġof": 2130,
      "Ġ2022": 2131,
      "á»©t": 2132,
      "ĠTÃłi": 2133,
      "ĠÆ°á»Ľc": 2134,
      "áºł": 2135,
      "ĠPH": 2136,
      "Ġnáº¯ng": 2137,
      "ĠEm": 2138,
      "áº¾": 2139,
      "Ġtháº§y": 2140,
      "Ġtá»ĵn": 2141,
      "ĠrÆ°á»£u": 2142,
      "ĠÄĳá»«ng": 2143,
      "2022": 2144,
      "Ġ2017": 2145,
      "Ġniá»ģm": 2146,
      "ĠtÃ´n": 2147,
      "ĠQuáºŃn": 2148,
      "Ġtáº¥m": 2149,
      "ld": 2150,
      "ĠmÃ¹i": 2151,
      "ĠtháºŃm": 2152,
      "Ġxáº¥u": 2153,
      "ĠlÆ°Æ¡ng": 2154,
      "oan": 2155,
      "Ġcá»©ng": 2156,
      "Ġchá»¥p": 2157,
      "ĠCho": 2158,
      "ĠgiÃ³": 2159,
      "ĠAr": 2160,
      "Ġma": 2161,
      "Ġmá»¥n": 2162,
      "á»īnh": 2163,
      "ĠÄĳá»Ļt": 2164,
      "ĠLÃ¢m": 2165,
      "Ġnháº¥n": 2166,
      "ĠnÃºi": 2167,
      "ĠbiÃªn": 2168,
      "ĠthÆ¡m": 2169,
      "VN": 2170,
      "ĠDu": 2171,
      "--": 2172,
      "ĠPhÃ³": 2173,
      "se": 2174,
      "Ġtá»§": 2175,
      "Ġmáº½": 2176,
      "ĠHai": 2177,
      "Ġgáº¯n": 2178,
      "ĠcáºŃn": 2179,
      "ĠlÆ°á»£c": 2180,
      "ĠsÃ³ng": 2181,
      "ib": 2182,
      "amin": 2183,
      "ĠgiÃłu": 2184,
      "our": 2185,
      "Ġáº¢nh": 2186,
      "á»Ľt": 2187,
      "Trang": 2188,
      "ox": 2189,
      "Ġá»§y": 2190,
      "ĠdÃły": 2191,
      "Ġlá»Ńa": 2192,
      "ĠAl": 2193,
      "ĠNÄĥm": 2194,
      "GiÃ¡": 2195,
      "Ġcan": 2196,
      "Ġchiáº¿m": 2197,
      "ind": 2198,
      "ĠhoÃłng": 2199,
      "Ġrau": 2200,
      "ank": 2201,
      "Ġpha": 2202,
      "ian": 2203,
      "Ġká»ĭp": 2204,
      "ĠtÃºi": 2205,
      "ĠÄĲáº·c": 2206,
      "Ġháº£o": 2207,
      "ÃĬ": 2208,
      "ĠtÆ°á»Ŀng": 2209,
      "ĠGiÃ¡o": 2210,
      "Ġá»ŀ": 2211,
      "qu": 2212,
      "ĠTÆ°": 2213,
      "VI": 2214,
      "ĠCao": 2215,
      "áº³n": 2216,
      "PT": 2217,
      "ĠViá»ĩc": 2218,
      "ĠQuang": 2219,
      "nam": 2220,
      "ud": 2221,
      "ĠlÃłng": 2222,
      "ĠgÃ³c": 2223,
      "Ġtá»ĩ": 2224,
      "ation": 2225,
      "Ġhttp": 2226,
      "Ġ=": 2227,
      "Ġgáº¯ng": 2228,
      "Ã©o": 2229,
      "ost": 2230,
      "az": 2231,
      "ĠkhÃ¡ng": 2232,
      "ĠtrÆ°ng": 2233,
      "ĠChi": 2234,
      "ĠThe": 2235,
      "Ġphi": 2236,
      "ĠtháºŃn": 2237,
      "ĠÄĳá»¡": 2238,
      "BÆ°á»Ľc": 2239,
      "ĠBÃ¡o": 2240,
      "Ġ?": 2241,
      "ĠvÅ©": 2242,
      "Ġthuyáº¿t": 2243,
      "Ã©n": 2244,
      "Ġgá»įn": 2245,
      "Ġkhá»ķ": 2246,
      "Ġlan": 2247,
      "Ġnáº¥u": 2248,
      "ĠkÃ¬": 2249,
      "Ġhá»Ļp": 2250,
      "ell": 2251,
      "ĠOn": 2252,
      "pp": 2253,
      "Ġchá»£": 2254,
      "MÃ¡y": 2255,
      "Ġcháº·t": 2256,
      "ĠgiÃłnh": 2257,
      "AN": 2258,
      "Ġbá»įn": 2259,
      "Ġkháº³ng": 2260,
      "ĠlÃ´ng": 2261,
      "Ġand": 2262,
      "2017": 2263,
      "are": 2264,
      "Ġtáº¡p": 2265,
      "Ġháº³n": 2266,
      "ĠthoÃ¡t": 2267,
      "ĠÄĳáº³ng": 2268,
      "ĠChÆ°Æ¡ng": 2269,
      "ĠquÃªn": 2270,
      "Táº¡i": 2271,
      "Ġhá»įp": 2272,
      "ĠHiá»ĩn": 2273,
      "ĠVáºŃy": 2274,
      "ĠKH": 2275,
      "ĠlÃ¡i": 2276,
      "ovid": 2277,
      "Ġhá»ģ": 2278,
      "Ġrá»«ng": 2279,
      "99": 2280,
      "ant": 2281,
      "á»©a": 2282,
      "ino": 2283,
      "Ġ28": 2284,
      "ĠhÃłm": 2285,
      "ĠcÆ°á»Ľi": 2286,
      "Ġloáº¡t": 2287,
      "Ġe": 2288,
      "Ġ27": 2289,
      "ĠNha": 2290,
      "áºŃc": 2291,
      "ĠNÃ³": 2292,
      "ĠBÃłi": 2293,
      "Ġ26": 2294,
      "Tá»«": 2295,
      "Ġkhung": 2296,
      "ĠmÆ°a": 2297,
      "Ġvideo": 2298,
      "ĠNG": 2299,
      "ĠCÃ´": 2300,
      "ĠBÃªn": 2301,
      "Ġ2016": 2302,
      "Ġsáº¯t": 2303,
      "ĠÄĲÃ³": 2304,
      "Ġtáº¯m": 2305,
      "ĠchÃ¡y": 2306,
      "ĠvÃŃ": 2307,
      "Ġru": 2308,
      "Ġcu": 2309,
      "ĠphÃ³ng": 2310,
      "Ġváº¿t": 2311,
      "MT": 2312,
      "ĠbÃ¢y": 2313,
      "ah": 2314,
      "ment": 2315,
      "īnh": 2316,
      "Ġá»ĳng": 2317,
      "Ġninh": 2318,
      "ĠRe": 2319,
      "Tuy": 2320,
      "ĠÄĳá»£i": 2321,
      "Ġnha": 2322,
      "ĠngÆ°á»£c": 2323,
      "Ġhu": 2324,
      "Ġvs": 2325,
      "á»ĭn": 2326,
      "Ġ#": 2327,
      "ĠÄĳÃ¡m": 2328,
      "ÄĲÃ¢y": 2329,
      "ich": 2330,
      "ĠHy": 2331,
      "ĠPhÃ¡t": 2332,
      "ĠtrÄĥm": 2333,
      "ĠlÃ£o": 2334,
      "Ġdinh": 2335,
      "Ġngá»įt": 2336,
      "Ġxá»ķ": 2337,
      "Ġcl": 2338,
      "ĠBÃł": 2339,
      "ĠrÆ¡i": 2340,
      "ĠSp": 2341,
      "Ġpháº¡t": 2342,
      "Ġtá»Ŀ": 2343,
      "ĠHá»įc": 2344,
      "Ġtá»ı": 2345,
      "Phone": 2346,
      "Ġsá»ķ": 2347,
      "ĠNhÆ°": 2348,
      "ĠÄĲiá»ĩn": 2349,
      "ĠKhu": 2350,
      "ternet": 2351,
      "ĠcÃłi": 2352,
      "ĠQuÃ½": 2353,
      "ĠCO": 2354,
      "uá»ķi": 2355,
      "Ġliá»ĩt": 2356,
      "Ġtháº£i": 2357,
      "26": 2358,
      "Ġsong": 2359,
      "Ġdá»ĭp": 2360,
      "Ġnhá»±a": 2361,
      "ĠSÃłi": 2362,
      "ĠSáº£n": 2363,
      "Ġdá»«ng": 2364,
      "ĠPháº¡m": 2365,
      "ick": 2366,
      "ĠlÃ£i": 2367,
      "Ġmá»ĩnh": 2368,
      "ĠbáºŃc": 2369,
      "ĠthÃŃ": 2370,
      "Iá»Ĩ": 2371,
      "Ġkhuáº©n": 2372,
      "ĠlÃ´": 2373,
      "á»Ļp": 2374,
      "ĠchÃ¡u": 2375,
      "Ġtrá»©ng": 2376,
      "ĠSá»±": 2377,
      "Hiá»ĩn": 2378,
      "ĠÄĳÆ°Æ¡ng": 2379,
      "ĠsÆ¡n": 2380,
      "ĠtÃ²a": 2381,
      "Ġbá»¥ng": 2382,
      "Ġngáº¡i": 2383,
      "ĠkhuÃ´n": 2384,
      "ĠchÃłng": 2385,
      "Ġmá»Ļ": 2386,
      "Ġkem": 2387,
      "Ġláº«n": 2388,
      "Ġbá»¯a": 2389,
      "ĠTáº¿t": 2390,
      "Ġmá»Ŀi": 2391,
      "Ġla": 2392,
      "Ġ40": 2393,
      "Ġkháº¯p": 2394,
      "ond": 2395,
      "Ġxinh": 2396,
      "ĠhoÃ¡": 2397,
      "ĠcháºŃm": 2398,
      "ĠthÃ´n": 2399,
      "Ġná»£": 2400,
      "ÃĤ": 2401,
      "Ġgiáº£ng": 2402,
      "ĠThÆ°Æ¡ng": 2403,
      "Ġtrá»¥": 2404,
      "ĠxÆ°Æ¡ng": 2405,
      "itamin": 2406,
      "Ġgáº¥p": 2407,
      "ry": 2408,
      "ĠÄĳá»©a": 2409,
      "Ġmá»«ng": 2410,
      "gi": 2411,
      "ÃĶng": 2412,
      "ĠÆ°Æ¡ng": 2413,
      "Ġhy": 2414,
      "Ġná»Ńa": 2415,
      "ey": 2416,
      "Ġâ": 2417,
      "ĠÄĳÃ£i": 2418,
      "ĠCovid": 2419,
      "AM": 2420,
      "TC": 2421,
      "ĠlÆ°ng": 2422,
      "ĠTá»Ń": 2423,
      "ĠGÃ²n": 2424,
      "ina": 2425,
      "Ġcáº·p": 2426,
      "ĠGiÃ¡m": 2427,
      "Ġbáº¡i": 2428,
      "Ġbuá»ĵn": 2429,
      "TrÆ°á»Ľc": 2430,
      "28": 2431,
      "ĠÄĲÆ°á»Ŀng": 2432,
      "ĠngÃ´n": 2433,
      "Ġcá»¥c": 2434,
      "IN": 2435,
      "ĠkhÃºc": 2436,
      "ĠNháº¥t": 2437,
      "ĠNew": 2438,
      "Ġngá»«ng": 2439,
      "ĠtrÃł": 2440,
      "Ġlá»ĩnh": 2441,
      "ĠLuáºŃt": 2442,
      "Ġkhiá»ĥn": 2443,
      "Ġthua": 2444,
      "ĠCl": 2445,
      "und": 2446,
      "ĠSá»ĳ": 2447,
      "Ġtrá»«": 2448,
      "ĠBá»ĩnh": 2449,
      "ĠbÃ¨": 2450,
      "ĠÄĳá»©c": 2451,
      "ĠYÃªn": 2452,
      "Ġrá»Ŀi": 2453,
      "ĠThiáº¿t": 2454,
      "Ġco": 2455,
      "ĠÄĳiá»ĥn": 2456,
      "ĠThá»Ŀi": 2457,
      "Ġbá»ģ": 2458,
      "36": 2459,
      "ĠVÆ°Æ¡ng": 2460,
      "Ġcháº£y": 2461,
      "ĠTá»ķ": 2462,
      "ĠÄĲÃ¬nh": 2463,
      "ĠcÄĥng": 2464,
      "ĠMai": 2465,
      "Ġ29": 2466,
      "ĠHá»į": 2467,
      "ĠbÄĥng": 2468,
      "gle": 2469,
      "ĠCÆ¡": 2470,
      "Ġtáº£ng": 2471,
      "Ġ01": 2472,
      "Ġháº£i": 2473,
      "ĠTiÃªn": 2474,
      "Ġtáº¡m": 2475,
      "ĠVÃ¢n": 2476,
      "Ġung": 2477,
      "45": 2478,
      "BÃłi": 2479,
      "Ġlá»ĳi": 2480,
      "ĠGame": 2481,
      "oy": 2482,
      "iew": 2483,
      "ĠGiáº£i": 2484,
      "Ġloáº¡n": 2485,
      "==": 2486,
      "ĠCÃ²n": 2487,
      "oogle": 2488,
      "Æ¯á»": 2489,
      "Ġrá»ĳi": 2490,
      "ĠquÃª": 2491,
      "acc": 2492,
      "Ġthá»Ł": 2493,
      "ĠCity": 2494,
      "Ġsá»©": 2495,
      "Ġmáº¯n": 2496,
      "Ġnguyá»ĩn": 2497,
      "ĠvÆ°á»Ŀn": 2498,
      "á»§i": 2499,
      "Ġtáº¯t": 2500,
      "ĠTáºŃp": 2501,
      "ĠHÆ°Æ¡ng": 2502,
      "ĠDá»±": 2503,
      "ĠMan": 2504,
      "Ġtrá»¯": 2505,
      "Ġ08": 2506,
      "ĠphÃº": 2507,
      "ĠLÃłm": 2508,
      "eg": 2509,
      "Ġbáº¯n": 2510,
      "Ġtáº£": 2511,
      "ĠnghÃ¨o": 2512,
      "ĠhÃło": 2513,
      "2016": 2514,
      "ĠBá»Łi": 2515,
      "ĠlÆ°á»Ľi": 2516,
      "Ġtá»ķn": 2517,
      "Ġlá»Ĺ": 2518,
      "ĠPro": 2519,
      "ĠdÆ°á»£c": 2520,
      "ĠcÆ¡m": 2521,
      "ĠiPhone": 2522,
      "ĠHÃłng": 2523,
      "Ġlá»¥c": 2524,
      "ĠÄĲá»ĭa": 2525,
      "Ġngang": 2526,
      "ĠÄĲá»Ļ": 2527,
      "Ġthá»ıa": 2528,
      "ÃĶNG": 2529,
      "Ìī": 2530,
      "ĠÄĳá»ĭch": 2531,
      "ThÃ´ng": 2532,
      "ĠLa": 2533,
      "cm": 2534,
      "Ġáº©n": 2535,
      "Ġthá»Ŀ": 2536,
      "Ġtruyá»ĩn": 2537,
      "ee": 2538,
      "ĠPl": 2539,
      "!\"": 2540,
      "Ġbinh": 2541,
      "Ġthang": 2542,
      "ĠÄĳáºŃu": 2543,
      "Ã£ng": 2544,
      "ĠÄĲá»ĳi": 2545,
      "ast": 2546,
      "Ġná»ķ": 2547,
      "ĠnhÃłng": 2548,
      "±ng": 2549,
      "ix": 2550,
      "ĠMar": 2551,
      "Ġgiá»ıi": 2552,
      "Ġgiáº¥c": 2553,
      "ĠKhoa": 2554,
      "Ġxá»©": 2555,
      "orld": 2556,
      "LV": 2557,
      "TV": 2558,
      "ĠloÃłi": 2559,
      "ĠQuÃ¢n": 2560,
      "ĠTÃ¢m": 2561,
      "Ġtrá»įn": 2562,
      "27": 2563,
      "ĠthÆ°á»£ng": 2564,
      "Ġháº¹n": 2565,
      "ĠHÆ°ng": 2566,
      "Ġsu": 2567,
      "Ãºy": 2568,
      "ĠphÆ°á»Ŀng": 2569,
      "Ġvá»ı": 2570,
      "ĠmÃły": 2571,
      "Ġche": 2572,
      "ĠhÃ¨": 2573,
      "ĠLÃł": 2574,
      "Ġ2015": 2575,
      "áº¹o": 2576,
      "II": 2577,
      "ĠÄĲoÃłn": 2578,
      "Ġhá»ĵn": 2579,
      "ach": 2580,
      "29": 2581,
      "ĠgÆ°Æ¡ng": 2582,
      "Ġná»Ĺi": 2583,
      "ĠÄĳÃ²i": 2584,
      "ChÃºng": 2585,
      "Ġu": 2586,
      "ĠÃ©p": 2587,
      "á»Ĳ": 2588,
      "ĠÄĳá»ĩ": 2589,
      "Ġmai": 2590,
      "top": 2591,
      "ight": 2592,
      "ĠchÃ³": 2593,
      "end": 2594,
      "ĠÄĳá»īnh": 2595,
      "ty": 2596,
      "Ġgan": 2597,
      "ĠchÃło": 2598,
      "Ġquang": 2599,
      "Ġcháº¡m": 2600,
      "Anh": 2601,
      "ĠxÆ°a": 2602,
      "ĠthÃ©p": 2603,
      "ĠPr": 2604,
      "Ġ60": 2605,
      "Æ¡m": 2606,
      "NhÃł": 2607,
      "ĠPhi": 2608,
      "ĠcÃº": 2609,
      "ĠtÃ´ng": 2610,
      "Giá»": 2611,
      "ĠtrÃ²n": 2612,
      "ĠÄĳua": 2613,
      "Ġáº¤": 2614,
      ">>": 2615,
      "sh": 2616,
      "Bá»Ļ": 2617,
      "log": 2618,
      "out": 2619,
      "ÄĲT": 2620,
      "ĠPhÃºc": 2621,
      "ver": 2622,
      "Ġkhá»§ng": 2623,
      "ĠtrÃ´ng": 2624,
      "ml": 2625,
      "ber": 2626,
      "TrÃªn": 2627,
      "55": 2628,
      "Ġphá»©c": 2629,
      "ĠDá»ĭch": 2630,
      "ĠkÃªnh": 2631,
      "Ġchua": 2632,
      "ĠgiÃł": 2633,
      "Ġná»Ĺ": 2634,
      "Ġthá»±": 2635,
      "ĠngÃłn": 2636,
      "Ġtráº¥n": 2637,
      "Ġmá»¡": 2638,
      "ĠkhÃ¡n": 2639,
      "ive": 2640,
      "ĠthoÃ¡ng": 2641,
      "ĠBl": 2642,
      "ĠÄĲáº§u": 2643,
      "ĠtÃ¢n": 2644,
      "ĠphÃ¡i": 2645,
      "ĠtÄ©nh": 2646,
      "Ġtiá»ģm": 2647,
      "ĠNgÃ¢n": 2648,
      "ĠCáº§n": 2649,
      "ĠgiÃ£n": 2650,
      "Ġngá»«a": 2651,
      "app": 2652,
      "ĠNghá»ĩ": 2653,
      "ĠbÃ²": 2654,
      "Ġthiá»ĥu": 2655,
      "Ġhá»©ng": 2656,
      "Ġhiá»ĥn": 2657,
      "Æł": 2658,
      "ĠVin": 2659,
      "ĠThá»©": 2660,
      "ðŁ": 2661,
      "tel": 2662,
      "Ġmá»±c": 2663,
      "ton": 2664,
      "ĠbÃ©o": 2665,
      "Ġnon": 2666,
      "ĠTiá»ĥu": 2667,
      "ĠTiáº¿n": 2668,
      "40": 2669,
      "CO": 2670,
      "ĠPháº§n": 2671,
      "ĠkÃŃn": 2672,
      "Ġthá»ķ": 2673,
      "Ġgiá»įng": 2674,
      "ĠcÆ¡n": 2675,
      "ĠÄĲáº¿n": 2676,
      "¦y": 2677,
      "ĠHCM": 2678,
      "Ġbá»¥i": 2679,
      "á»³nh": 2680,
      "Ġpro": 2681,
      "ĠtÃ¢y": 2682,
      "ft": 2683,
      "ĠÄĲá»ĭnh": 2684,
      "ĠdáºŃy": 2685,
      "Ġsá»ĳt": 2686,
      "Ãªnh": 2687,
      "ĠtrÃº": 2688,
      "Ġtan": 2689,
      "Ġváº£i": 2690,
      "ĠAnd": 2691,
      "ĠthÃ¹": 2692,
      "Em": 2693,
      "ĠHÃ³a": 2694,
      "ĠUn": 2695,
      "33": 2696,
      "âĢ¦âĢ¦": 2697,
      "tion": 2698,
      "ĠgiÃły": 2699,
      "ice": 2700,
      "Ġcá»ķng": 2701,
      ");": 2702,
      "Ġdao": 2703,
      "ĠTáº¥t": 2704,
      "ĠThá»§y": 2705,
      "pl": 2706,
      "Ġváº½": 2707,
      "á»¥ng": 2708,
      "ĠThá»±c": 2709,
      "ĠtrÆ°Æ¡ng": 2710,
      "ĠGI": 2711,
      "ĠnÃ£o": 2712,
      "ÄĲá»ĳi": 2713,
      "ĠkÃªu": 2714,
      "Ġdiá»ĩt": 2715,
      "ĠdÆ°": 2716,
      "Ġpin": 2717,
      "Ġngo": 2718,
      "ĠNhiá»ģu": 2719,
      "BÃªn": 2720,
      "ĠrÃ£i": 2721,
      "Ġngá»±c": 2722,
      "ĠKáº¿t": 2723,
      "ho": 2724,
      "ĠTrÃªn": 2725,
      "ĠVinh": 2726,
      "ĠnhuáºŃn": 2727,
      "ĠgiÆ°á»Ŀng": 2728,
      "Ġ02": 2729,
      "ear": 2730,
      "60": 2731,
      "Ġviá»ĩt": 2732,
      "ĠHáº¡": 2733,
      "á»Ĺng": 2734,
      "ĠPhan": 2735,
      "ĠTháº§n": 2736,
      "Thá»Ŀi": 2737,
      "ĠÄĳÃłi": 2738,
      "35": 2739,
      "!!": 2740,
      "Ġcháº·n": 2741,
      "ĠÄĳáº¿": 2742,
      "Ġláº»": 2743,
      "ĠViá»ĩn": 2744,
      "ĠSinh": 2745,
      "ĠXem": 2746,
      "ĠbÃ£i": 2747,
      "ĠFacebook": 2748,
      "ĠÆ°a": 2749,
      "ĠDÃ¢n": 2750,
      "ĠÄĳáºŃm": 2751,
      "ÄĲiá»ģu": 2752,
      "Ġfan": 2753,
      "Ġá»§ng": 2754,
      "áº¬": 2755,
      "Ġsáº¯m": 2756,
      "ĠThÃ¡nh": 2757,
      "ĠTrÆ°á»Ľc": 2758,
      "ĠNghá»ĭ": 2759,
      "OS": 2760,
      "Ġtráº§n": 2761,
      "mart": 2762,
      "Ġtráº§m": 2763,
      "Ġmá»ıi": 2764,
      "ĠbÃ³": 2765,
      "ĠKhÃ¡nh": 2766,
      "Ġmá»ĩt": 2767,
      "ĠCá»Ļng": 2768,
      "ĠÄĲá»": 2769,
      "ĠÄĳáº£ng": 2770,
      "UY": 2771,
      "ĠhÆ°": 2772,
      "ĠtháºŃp": 2773,
      "ĠMá»Ĺi": 2774,
      "ĠtrÃło": 2775,
      "Ġgiáº¿t": 2776,
      "ĠTuáº¥n": 2777,
      "Ġduyá»ĩt": 2778,
      "ull": 2779,
      "ĠnÆ°á»Ľng": 2780,
      "Ġ500": 2781,
      "á»ıi": 2782,
      "Ġá»¦y": 2783,
      "Ġ07": 2784,
      "ĠKhÃ¡ch": 2785,
      "iáº¿c": 2786,
      "phone": 2787,
      "ĠGr": 2788,
      "ÃĬN": 2789,
      "Ġ03": 2790,
      "Ġmá»ĭn": 2791,
      "ĠVÄ©nh": 2792,
      "Ġkhá»Ľp": 2793,
      "ĠÄĳá»±ng": 2794,
      "Ġfor": 2795,
      "ĠBÃŃ": 2796,
      "ĠTiá»ģn": 2797,
      "ĠlÃŃ": 2798,
      "Ġvitamin": 2799,
      "ÄĤ": 2800,
      "ĠBr": 2801,
      "Ġgá»£i": 2802,
      "Ġnhi": 2803,
      "Ġbá»ĳn": 2804,
      "Ġhttps": 2805,
      "NhÆ°ng": 2806,
      "ĠcÃ¡t": 2807,
      "ork": 2808,
      "TS": 2809,
      "asino": 2810,
      "Ġtri": 2811,
      "2015": 2812,
      "ams": 2813,
      "Ġro": 2814,
      "Ġnáº¡p": 2815,
      "ĠApp": 2816,
      "Ġ199": 2817,
      "ĠngÆ¡i": 2818,
      "Viá»ĩc": 2819,
      "ĠHiá»ĩp": 2820,
      "38": 2821,
      "Ġvá»¡": 2822,
      "ĠChu": 2823,
      "á»Ļm": 2824,
      "ague": 2825,
      "Ġcá»Ŀ": 2826,
      "Ġtreo": 2827,
      "mm": 2828,
      "á»ĳp": 2829,
      "á»ŀ": 2830,
      "ĠmÃ£n": 2831,
      "ĠLÆ°u": 2832,
      "Ġpháº¥n": 2833,
      "ĠÄĲÃło": 2834,
      "ĠsÃ¡nh": 2835,
      "VID": 2836,
      "ĠGoogle": 2837,
      "ĠdÃ¡m": 2838,
      "ĠtÃŃ": 2839,
      "ĠOnline": 2840,
      "ĠHLV": 2841,
      "Â·": 2842,
      "ĠchÃºc": 2843,
      "Ġcom": 2844,
      "ĠCÃ¹ng": 2845,
      "Æ°á»Ľt": 2846,
      "Ġnháº¯n": 2847,
      "á»±u": 2848,
      "Ġbá»ĳi": 2849,
      "Ġbi": 2850,
      "Tin": 2851,
      "Ġhiá»ĩp": 2852,
      "%.": 2853,
      "ĠtrÃłn": 2854,
      "):": 2855,
      "ies": 2856,
      "roid": 2857,
      "Ġvua": 2858,
      "ĠLÃºc": 2859,
      "Ġtrá»Ļn": 2860,
      "ĠQuan": 2861,
      "ĠkhuyÃªn": 2862,
      "VÃ¬": 2863,
      "Ġxá»©ng": 2864,
      "EO": 2865,
      "Ġtá»ĳn": 2866,
      "ĠVá»ģ": 2867,
      "Ġthiá»ĩt": 2868,
      "ĠCan": 2869,
      "á»§a": 2870,
      "Ġmuá»ĳi": 2871,
      "ĠMáº·c": 2872,
      "Ġ2014": 2873,
      "Ngh": 2874,
      "ini": 2875,
      "ĠSá»Ń": 2876,
      "load": 2877,
      "Ġcháº¥m": 2878,
      "ĠAd": 2879,
      "Home": 2880,
      "uk": 2881,
      "ĠÃ´m": 2882,
      "Ġhuáº¥n": 2883,
      "ĠCup": 2884,
      "ĠWorld": 2885,
      "Ġcá»Ļt": 2886,
      "ĠxuÃ¢n": 2887,
      "ĠBiÃªn": 2888,
      "á»¥y": 2889,
      "ĠnÃºt": 2890,
      "Ġbá»Ŀ": 2891,
      "ĠThÆ°á»Ŀng": 2892,
      "ĠQuy": 2893,
      "ĠtiÃªm": 2894,
      "Ġdáº¡": 2895,
      "Ġtháº¯c": 2896,
      "ĠHÃ¹ng": 2897,
      "Ġpháº«u": 2898,
      "Ġáº¡": 2899,
      "Ġ06": 2900,
      "indow": 2901,
      "Ġhiáº¿m": 2902,
      "Ġsoi": 2903,
      "ug": 2904,
      "Vá»ģ": 2905,
      "ĠTNH": 2906,
      "ĠHÃ¬nh": 2907,
      "ĠgiÃ¢y": 2908,
      "ect": 2909,
      "ode": 2910,
      "Ġj": 2911,
      "ays": 2912,
      "ĠkhoÃ¡n": 2913,
      "80": 2914,
      "arket": 2915,
      "Ġhot": 2916,
      "Ġhá»ıng": 2917,
      "ĠHD": 2918,
      "ĠÄĳiá»ĩu": 2919,
      "ĠÄĲÆ°á»£c": 2920,
      "ĠkiÃªn": 2921,
      "ĠTNHH": 2922,
      "ĠthÃ¡ch": 2923,
      "ĠnghÃ¬n": 2924,
      "Ġhá»§y": 2925,
      "ĠÄĳá»£": 2926,
      "37": 2927,
      "kg": 2928,
      "oh": 2929,
      "Ġdá»©t": 2930,
      "ĠCom": 2931,
      "own": 2932,
      "ĠMáº·t": 2933,
      "ĠchÃŃn": 2934,
      "ĠTPHCM": 2935,
      "Ã¹m": 2936,
      "Ġ05": 2937,
      "ĠDi": 2938,
      "ĠÃĿ": 2939,
      "eng": 2940,
      "ĠtÃ¡n": 2941,
      "ide": 2942,
      "rus": 2943,
      "ĠchÃ¹a": 2944,
      "Ġvong": 2945,
      "ĠCá»ķ": 2946,
      "ĠCáº§u": 2947,
      "Ġcáº©n": 2948,
      "Ġ>": 2949,
      "ĠhÃ¹ng": 2950,
      "ĠHuáº¿": 2951,
      "Ġáº¤n": 2952,
      "ada": 2953,
      "Ġláº·ng": 2954,
      "Ġáº£o": 2955,
      "ĠÄĳÄ©a": 2956,
      "ĠÄĳuá»ķi": 2957,
      "Ġká»ĭch": 2958,
      "ĠBÃ¡c": 2959,
      "ĠmÃ³c": 2960,
      "Æ°á»Ľp": 2961,
      "ans": 2962,
      "Ġtung": 2963,
      "Ġthan": 2964,
      "ĠsÃ´i": 2965,
      "ĠcÆ°Æ¡ng": 2966,
      "af": 2967,
      "ĠTÃ¬nh": 2968,
      "amp": 2969,
      ",...": 2970,
      "old": 2971,
      "Ġtá»±a": 2972,
      "ĠlÅ©": 2973,
      "ÄĲá»ĭa": 2974,
      "Ġcanh": 2975,
      "Ġgáº¡o": 2976,
      "oll": 2977,
      "Chá»§": 2978,
      "ĠAm": 2979,
      "Ġmáº¡c": 2980,
      "ĠkhoÃ¡ng": 2981,
      "http": 2982,
      "Ġhuynh": 2983,
      "ĠphÃ³": 2984,
      "ĠÄĲÄĥng": 2985,
      "ĠNgoáº¡i": 2986,
      "ĠBáº¡ch": 2987,
      "Ġ)": 2988,
      "Ġ31": 2989,
      "ĠbÃª": 2990,
      "alo": 2991,
      "Ġláº§m": 2992,
      "39": 2993,
      "ĠCOVID": 2994,
      "ĠHá»ĩ": 2995,
      "Ġtáº©y": 2996,
      "Ġ!": 2997,
      "ÄĲÆ°á»£c": 2998,
      "ĠnÃªu": 2999,
      "Ãį": 3000,
      "ĠbÃ´ng": 3001,
      "âĢĿ.": 3002,
      "ĠÄĳá»£t": 3003,
      "Tá»ķng": 3004,
      "ĠInternet": 3005,
      "ĠbuÃ´n": 3006,
      "Ġgiáº·t": 3007,
      "aptop": 3008,
      "do": 3009,
      "Ġ04": 3010,
      "Ġsex": 3011,
      "con": 3012,
      "Ġhá»ķ": 3013,
      "ĠThÆ°á»£ng": 3014,
      "ĠÄĲa": 3015,
      "Ġmiáº¿ng": 3016,
      "to": 3017,
      "Ġbáº¡ch": 3018,
      "ĠQU": 3019,
      "ĠHÆ°á»Ľng": 3020,
      "ĠâĢ¢": 3021,
      "ĠXe": 3022,
      "ĠÄĲÃłi": 3023,
      "Ġhuá»ĳng": 3024,
      "66": 3025,
      "Ġcá»ĳt": 3026,
      "ĠgiÃ¡p": 3027,
      "500": 3028,
      "Ġvang": 3029,
      "Ġrá»§i": 3030,
      "ĠThuáºŃn": 3031,
      "49": 3032,
      "TP": 3033,
      "Ġtá»ıa": 3034,
      "Ġchá»§ng": 3035,
      "ĠxÃ¢m": 3036,
      "ĠxÃ³a": 3037,
      "ĠmÃłng": 3038,
      "ĠkhÃŃch": 3039,
      "âĢĤ": 3040,
      "AR": 3041,
      "Ġgá»¡": 3042,
      "ĠHuy": 3043,
      "CN": 3044,
      "Con": 3045,
      "Ġná»Ļp": 3046,
      "Ġ70": 3047,
      "ĠtÃ¡ch": 3048,
      "ĠbÆ¡i": 3049,
      "ĠQuáº£n": 3050,
      "ĠÄĳáºŃp": 3051,
      "Ġphun": 3052,
      "Ġlá»«a": 3053,
      "ĠkhÃ³c": 3054,
      "ĠÃļ": 3055,
      "ĠEx": 3056,
      "ĠgiáºŃn": 3057,
      "Do": 3058,
      "á»ıng": 3059,
      "ĠBar": 3060,
      "ĠvÆ°Æ¡ng": 3061,
      "ĠnhÃ£n": 3062,
      "ĠrÃ¡c": 3063,
      "ĠGiao": 3064,
      "Ġha": 3065,
      "ĠbÃ¡t": 3066,
      "Ġst": 3067,
      "ĠTá»īnh": 3068,
      "Ġhoang": 3069,
      "ĠMáº¹": 3070,
      "Ġ300": 3071,
      "ĠTop": 3072,
      "Ġruá»Ļt": 3073,
      "77": 3074,
      "lot": 3075,
      "Ġtiá»ĩc": 3076,
      "Ġ80": 3077,
      "Ġshop": 3078,
      "ĠNÆ°á»Ľc": 3079,
      "xi": 3080,
      "ĠAir": 3081,
      "ines": 3082,
      "ool": 3083,
      "Ġthuyá»ģn": 3084,
      "Sá»±": 3085,
      "ĠKho": 3086,
      "Ġbang": 3087,
      "pr": 3088,
      "Ġ2013": 3089,
      "CS": 3090,
      "so": 3091,
      "ĠVI": 3092,
      "roup": 3093,
      "wn": 3094,
      "ĠÄĳeo": 3095,
      "indows": 3096,
      "48": 3097,
      "TH": 3098,
      "Ġtrá»Ļi": 3099,
      "ĠtÃłn": 3100,
      "Ġtrá»¥c": 3101,
      "Ġcáº¥m": 3102,
      "ump": 3103,
      "ri": 3104,
      "ĠDuy": 3105,
      "ĠlÃ¢m": 3106,
      "ER": 3107,
      "Ġ90": 3108,
      "ĠsÄĥn": 3109,
      "ĠMa": 3110,
      "ĠbÃ¬": 3111,
      "Ġtháº£m": 3112,
      "46": 3113,
      "Ġchá»¥c": 3114,
      "son": 3115,
      "Thiáº¿t": 3116,
      "ĠTam": 3117,
      "Ġxoay": 3118,
      "ge": 3119,
      "uong": 3120,
      "Ã©m": 3121,
      "ĠAs": 3122,
      "ĠhÃ´": 3123,
      "Ġva": 3124,
      "Ġ35": 3125,
      "ĠthÃ¢m": 3126,
      "ĠhÃ´i": 3127,
      "ĠDÃ¹": 3128,
      "Ġbá»ĵi": 3129,
      "á»¯u": 3130,
      "ash": 3131,
      "Cho": 3132,
      "Ġong": 3133,
      "ĠtÃºc": 3134,
      "Ġkhen": 3135,
      "ĠMy": 3136,
      "ĠTrÆ°á»Łng": 3137,
      "ĠChiáº¿n": 3138,
      "Ġná»Ł": 3139,
      "ĠCá»¥c": 3140,
      "Ġchá»«ng": 3141,
      "ĠBáº±ng": 3142,
      "ĠtÃ¹": 3143,
      "ĠtÃ¡o": 3144,
      "Ġtop": 3145,
      "ĠlÃ²": 3146,
      "2014": 3147,
      "ĠÄĳá»ĳt": 3148,
      "Ġchuá»Ĺi": 3149,
      "ĠCÃ¡": 3150,
      "ĠphÃ¡n": 3151,
      "ĠDÅ©ng": 3152,
      "su": 3153,
      "arat": 3154,
      "aw": 3155,
      "Ġcá»ı": 3156,
      "ĠTiáº¿ng": 3157,
      "ran": 3158,
      "áº¦": 3159,
      "Ġvu": 3160,
      "ĠdÃ¡n": 3161,
      "Ġbá»Ľt": 3162,
      "ĠÃ¡i": 3163,
      "ChÃŃnh": 3164,
      "47": 3165,
      "¡i": 3166,
      "Ġthá»į": 3167,
      "ester": 3168,
      "Ġtháº¥m": 3169,
      "ĠlÃ£ng": 3170,
      "ĠdÃŃnh": 3171,
      "ĠngÃ£": 3172,
      "CC": 3173,
      "fa": 3174,
      "ĠTa": 3175,
      "NÄĥm": 3176,
      "use": 3177,
      "Ġsa": 3178,
      "Ãĵ": 3179,
      "Ġmá»ıng": 3180,
      "arketing": 3181,
      "53": 3182,
      "ĠdÃ¢u": 3183,
      "Ġsá»¹": 3184,
      "ace": 3185,
      "LÃłm": 3186,
      "NhÆ°": 3187,
      "ĠKáº¿": 3188,
      "HÆ°á»Ľng": 3189,
      "min": 3190,
      "ĠthÃ³i": 3191,
      "Ġchuá»Ļt": 3192,
      "amsung": 3193,
      "AT": 3194,
      "xy": 3195,
      "ĠEn": 3196,
      "Ġnháº£y": 3197,
      "rid": 3198,
      "ĠhÃ¢m": 3199,
      "Ġkháº¥u": 3200,
      "ĠPark": 3201,
      "ĠCáº£nh": 3202,
      "ood": 3203,
      "Ġhá»Ĺn": 3204,
      "Ġtháº£": 3205,
      "Ġnáº¥m": 3206,
      "Ġcáº£n": 3207,
      "AS": 3208,
      "ĠCÅ©ng": 3209,
      "ĠAc": 3210,
      "ĠCo": 3211,
      "ĠÄĳam": 3212,
      "ĠCamera": 3213,
      "ĠVÃµ": 3214,
      "Ġbáº©n": 3215,
      "Ġdá»ĭu": 3216,
      "ĠbÃ£o": 3217,
      "ĠbÃ¡m": 3218,
      "ifi": 3219,
      "Ġ36": 3220,
      "Ġhá»©a": 3221,
      "XH": 3222,
      "ÃĮ": 3223,
      "obile": 3224,
      "ky": 3225,
      "Æ°á»¡i": 3226,
      "ĠToÃłn": 3227,
      "ĠTá»": 3228,
      "ĠDoanh": 3229,
      "ĠPM": 3230,
      "ĠtÃ´m": 3231,
      "ĠUy": 3232,
      "ha": 3233,
      "ĠlÃ¢y": 3234,
      "á»įa": 3235,
      "Ġquá»¹": 3236,
      "%,": 3237,
      "89": 3238,
      "ĠÃ¡c": 3239,
      "Ġemail": 3240,
      "2013": 3241,
      "44": 3242,
      "ĠNá»¯": 3243,
      "ĠxÆ°á»Łng": 3244,
      "Ġváº¹n": 3245,
      "ĠbÆ¡m": 3246,
      "icro": 3247,
      "ĠngÆ°á»¡ng": 3248,
      "Ġná»ĵi": 3249,
      "Chá»ī": 3250,
      "uro": 3251,
      "Ġxá»ī": 3252,
      "56": 3253,
      "ĠghÃ©p": 3254,
      "ĠtáºŃt": 3255,
      "iver": 3256,
      "ĠHÆ¡n": 3257,
      "ED": 3258,
      "ĠHá»¯u": 3259,
      "ĠLeague": 3260,
      "Ġtrá»ĳng": 3261,
      "LÃł": 3262,
      "Ho": 3263,
      "Ġvinh": 3264,
      "Ġloa": 3265,
      "Ġchuá»Ļng": 3266,
      "ĠAndroid": 3267,
      "59": 3268,
      "In": 3269,
      "Ġmen": 3270,
      "ĠXÃ¢y": 3271,
      "Ġvá»Ļi": 3272,
      "man": 3273,
      "Ġbáº¯c": 3274,
      "ĠThÆ¡": 3275,
      "ĠSa": 3276,
      "ĠthÃ¡o": 3277,
      "Ġmá»ı": 3278,
      "ĠÄĲH": 3279,
      "ade": 3280,
      "áº«y": 3281,
      "31": 3282,
      "á»ĳm": 3283,
      "ĠTrÆ°Æ¡ng": 3284,
      "ith": 3285,
      "HÃ£y": 3286,
      "ĠkÄ©": 3287,
      "ĠPhÆ°á»Ľc": 3288,
      "Ġtiáº¿c": 3289,
      "Ġbong": 3290,
      "Ġchá»Ł": 3291,
      "www": 3292,
      "bo": 3293,
      "Ġmáº£nh": 3294,
      "ĠTrá»įng": 3295,
      "ĠLoan": 3296,
      "ON": 3297,
      "ĠmÃ¬": 3298,
      "Trung": 3299,
      "ĠÄĳáº¡p": 3300,
      "act": 3301,
      "á»Ĭ": 3302,
      "á»ĭt": 3303,
      "Ġbáº¡o": 3304,
      "ĠbÃ¹": 3305,
      "Ġtháº§u": 3306,
      "Ġtha": 3307,
      "34": 3308,
      "ĠPhá»¥": 3309,
      "Ġcháº¥n": 3310,
      "yl": 3311,
      "ĠsÃºng": 3312,
      "ĠBÃ¡n": 3313,
      "ĠGiá»Ľi": 3314,
      "ĠCS": 3315,
      "iá»ħu": 3316,
      "áºłI": 3317,
      "ĠtrÃºng": 3318,
      "ĠdÆ°á»Ŀng": 3319,
      "ĠThá»ĥ": 3320,
      "Nhiá»ģu": 3321,
      "ure": 3322,
      "ym": 3323,
      "ĠSing": 3324,
      "Ġz": 3325,
      "ĠLÆ°Æ¡ng": 3326,
      "ĠTÃłu": 3327,
      "ĠCÃ¡i": 3328,
      "CÃ´": 3329,
      "ĠSao": 3330,
      "ĠHÄĲ": 3331,
      "ĠSer": 3332,
      "Ġbá»įc": 3333,
      "Ġsá»£i": 3334,
      "Ġtráº¡i": 3335,
      "Ġngu": 3336,
      "ram": 3337,
      "........": 3338,
      "ĠViÃªn": 3339,
      "ĠGD": 3340,
      "ĠCá»": 3341,
      "eal": 3342,
      "ChÆ°Æ¡ng": 3343,
      "ĠSo": 3344,
      "Ġchuyá»ģn": 3345,
      "32": 3346,
      "ÄĲáº¡i": 3347,
      "Ġim": 3348,
      "âĢĭ": 3349,
      "Ġal": 3350,
      "ĠÄĲáº¥t": 3351,
      "ĠTo": 3352,
      "ĠHÃłnh": 3353,
      "Ġcá»¡": 3354,
      "uyen": 3355,
      "eam": 3356,
      "ĠthÃ¡nh": 3357,
      "Ġ2012": 3358,
      "įt": 3359,
      "Ġnháº¡y": 3360,
      "ĠNgÃ´": 3361,
      "Ġxay": 3362,
      "ĠvÃ¡y": 3363,
      ".,": 3364,
      "ĠÃļc": 3365,
      "ĠcáºŃy": 3366,
      "ĠNÃªn": 3367,
      "ier": 3368,
      "Ġsp": 3369,
      "ĠMÃ£": 3370,
      "Ġby": 3371,
      "ĠTiáº¿p": 3372,
      "ĠchÄĥn": 3373,
      "ĠDN": 3374,
      "ĠAM": 3375,
      "ĠApple": 3376,
      "Ġnhá»ĭp": 3377,
      "Ġ45": 3378,
      "ĠduyÃªn": 3379,
      "accarat": 3380,
      "__": 3381,
      "75": 3382,
      "ĠLá»Ļc": 3383,
      "Ġga": 3384,
      "ĠCháº¥t": 3385,
      "apore": 3386,
      "ĠchÄĥng": 3387,
      "ĠngáºŃp": 3388,
      "à¸": 3389,
      "ĠNgÃłi": 3390,
      "ĠLai": 3391,
      "ish": 3392,
      "LiÃªn": 3393,
      "ck": 3394,
      "ĠWeb": 3395,
      "ĠMal": 3396,
      "ĠnÃ©n": 3397,
      "??": 3398,
      "ĠTá»±": 3399,
      "Dá»±": 3400,
      "Ġcáº¥t": 3401,
      "ĠQua": 3402,
      "cel": 3403,
      "go": 3404,
      "ĠthÃ¹ng": 3405,
      "ĠTÃ´": 3406,
      "Ġlink": 3407,
      "Iáº¾": 3408,
      "Ġcong": 3409,
      "Ġphá»ıng": 3410,
      "ĠNÃ´ng": 3411,
      "ĠWindows": 3412,
      "Ġvirus": 3413,
      "ÄĲá»ĵng": 3414,
      "HÃ¬nh": 3415,
      "ĠTiÃªu": 3416,
      "ĠdÃłn": 3417,
      "ona": 3418,
      "Ġngáº¡c": 3419,
      "ĠÄĳÃł": 3420,
      "ĠcÃ¡p": 3421,
      "ET": 3422,
      "Ġngáº¯m": 3423,
      "áº«m": 3424,
      "ĠVietnam": 3425,
      "ĠtrÃŃch": 3426,
      "Thá»±c": 3427,
      "ĠmÆ°á»Ŀi": 3428,
      "khÃ´ng": 3429,
      "ĠTÃŃnh": 3430,
      "LB": 3431,
      "ĠCN": 3432,
      "oot": 3433,
      "100": 3434,
      "Ġmi": 3435,
      "ĠÄĳá»¥": 3436,
      "Ġchim": 3437,
      "Ġsay": 3438,
      "ĠhÃł": 3439,
      "Ġgáº¡ch": 3440,
      "68": 3441,
      "ĠÄĲá»Ļi": 3442,
      "ÄĲáº¿n": 3443,
      "Ġtáº¿t": 3444,
      "ĠHá»£p": 3445,
      "Ġliá»ģu": 3446,
      "ke": 3447,
      "Ġfile": 3448,
      "ial": 3449,
      "Ġ*": 3450,
      "ĠÄĲá»Ļng": 3451,
      "ĠcÃºng": 3452,
      "ube": 3453,
      "ĠMá»Ľi": 3454,
      "km": 3455,
      "Ġsáº¡c": 3456,
      "ĠVNÄĲ": 3457,
      "Ġngá»įc": 3458,
      "ĠnhÃ´m": 3459,
      "tain": 3460,
      "Ġkeo": 3461,
      "Ã£nh": 3462,
      "áº¹t": 3463,
      "58": 3464,
      "'s": 3465,
      "ech": 3466,
      "Ġtháº¡ch": 3467,
      "xit": 3468,
      "á»ĺ": 3469,
      "ĠnhÃ¡nh": 3470,
      "ock": 3471,
      "ĠTrump": 3472,
      "ĠmÃŃ": 3473,
      "ĠgiáºŃt": 3474,
      "ĠCP": 3475,
      "ĠCÃ¢u": 3476,
      "Ġlau": 3477,
      "ĠCá»¥": 3478,
      "ĠNhi": 3479,
      "ipp": 3480,
      "Ġmá»Ŀ": 3481,
      "ĠMá»įi": 3482,
      "ĠGiáº¥y": 3483,
      "coin": 3484,
      "eview": 3485,
      "Káº¿t": 3486,
      "ĠNghÄ©a": 3487,
      "ĠÄĳai": 3488,
      "ÄĲáº·c": 3489,
      "ĠxÄĥng": 3490,
      "ĠKiá»ģu": 3491,
      "ĠchÃºa": 3492,
      "onal": 3493,
      "ĠNgay": 3494,
      "Ġnáº¡": 3495,
      "ĠLáº¡t": 3496,
      "ĠÆ¡i": 3497,
      "ĠTHPT": 3498,
      "ĠÄĲiá»ĥm": 3499,
      "Ġthuáº§n": 3500,
      "57": 3501,
      "isa": 3502,
      "ico": 3503,
      "Ġlá»ĩch": 3504,
      "ĠvÃµ": 3505,
      "ĠhÃłn": 3506,
      "ĠsÃ²ng": 3507,
      "Ġkm": 3508,
      "int": 3509,
      "ĠsÃ¡u": 3510,
      "Dá»ĭch": 3511,
      "Ġháº§m": 3512,
      "ust": 3513,
      "let": 3514,
      "Ġbá»ĥ": 3515,
      "ĠThÆ°": 3516,
      "Ġnhá»ĭ": 3517,
      "ĠchÃ¡n": 3518,
      "ake": 3519,
      "Ġmá»ī": 3520,
      "ĠReal": 3521,
      "ĠTáº£i": 3522,
      "Ġháº±ng": 3523,
      "Ġcáº¯m": 3524,
      "ĠPhÆ°á»Ŀng": 3525,
      "ĠFor": 3526,
      "Ġ$": 3527,
      "ĠvÃ¢n": 3528,
      "Ġná»ĵng": 3529,
      "Ġchá»ĳt": 3530,
      "ĠGal": 3531,
      "ĠthÄĥng": 3532,
      "ĠXÃ£": 3533,
      "Sáº£n": 3534,
      "assage": 3535,
      "ĠÄĳÃłm": 3536,
      "EN": 3537,
      "ĠPhim": 3538,
      "HÃł": 3539,
      "ĠbÃº": 3540,
      "ĠtuÃ¢n": 3541,
      "ei": 3542,
      "ĠmÆ°u": 3543,
      "ĠNai": 3544,
      "ĠkÃŃ": 3545,
      "Ġat": 3546,
      "ĠbÃ¡": 3547,
      "ĠMá»¥c": 3548,
      "ĠHoÃłn": 3549,
      "ern": 3550,
      "ĠLá»ħ": 3551,
      "2012": 3552,
      "ĠSamsung": 3553,
      "ĠShop": 3554,
      "CP": 3555,
      "ĠÄĳáº¯t": 3556,
      "ĠÄĲáº¡o": 3557,
      "TM": 3558,
      "ĠngÃ³n": 3559,
      "ĠSingapore": 3560,
      "Ġson": 3561,
      "ens": 3562,
      "ĠSong": 3563,
      "ĠRes": 3564,
      "ĠÃĲ": 3565,
      "Ġhoáº£ng": 3566,
      "ĠÄĳáº¯c": 3567,
      "ĠbÃºt": 3568,
      "ĠphÃŃm": 3569,
      "ĠQuyáº¿t": 3570,
      "Ġmáº»": 3571,
      "ĠxÃ¡ch": 3572,
      "ike": 3573,
      "ĠDung": 3574,
      "âĢ¢": 3575,
      "ĠlÃ¡t": 3576,
      "Ġdá»įc": 3577,
      "Æ¯u": 3578,
      "Ġxi": 3579,
      ".ãĢĤ": 3580,
      "ara": 3581,
      "ĠdÃ¢m": 3582,
      "ĠmÃ¨o": 3583,
      "Ġmá»įc": 3584,
      "INH": 3585,
      "CÅ©ng": 3586,
      "ĠSÆ°": 3587,
      "Ġmáº¡n": 3588,
      "ĠTp": 3589,
      "á»¤": 3590,
      "ĠkhÃ´n": 3591,
      "Ġphu": 3592,
      "Ġtháº±ng": 3593,
      "54": 3594,
      "Ġá»©c": 3595,
      "Ġgá»ĳi": 3596,
      "Ġlaptop": 3597,
      "ĠTÄĥng": 3598,
      "ary": 3599,
      "ath": 3600,
      "Ġhá»ĳi": 3601,
      "Ġlang": 3602,
      "ĠBe": 3603,
      "TÃ¬m": 3604,
      "da": 3605,
      "ĠHuyá»ģn": 3606,
      "ĠHay": 3607,
      "ĠKiá»ĥm": 3608,
      "----": 3609,
      "ĠIP": 3610,
      "52": 3611,
      "ĠHot": 3612,
      "Ġlong": 3613,
      "ĠTruyá»ģn": 3614,
      "iss": 3615,
      "ĠsÃ³t": 3616,
      "ĠÃł": 3617,
      "ĠAi": 3618,
      "âĢ¦.": 3619,
      "Ġbia": 3620,
      "áº¤T": 3621,
      "ba": 3622,
      "ĠBáº¥t": 3623,
      "Æ°Æ¡n": 3624,
      "¨ng": 3625,
      "Ġnháº«n": 3626,
      "ĠMua": 3627,
      "ĠTriá»ģu": 3628,
      "Ġ150": 3629,
      "Hai": 3630,
      "ne": 3631,
      "âĢľ": 3632,
      "ames": 3633,
      "ica": 3634,
      "ES": 3635,
      "ĠCa": 3636,
      "ĠtÃłng": 3637,
      "Ġad": 3638,
      "ĠVÃŃ": 3639,
      "AI": 3640,
      "GB": 3641,
      "Ġtuá»ĩ": 3642,
      "axy": 3643,
      "ĠSun": 3644,
      "ĠCung": 3645,
      "cÃ³": 3646,
      "Ġmáº§m": 3647,
      "la": 3648,
      "Ġcasino": 3649,
      "Ġtriá»ĩt": 3650,
      "ĠXin": 3651,
      "Ġá»ĳc": 3652,
      "ĠTÄ©nh": 3653,
      "ĠÄĳiá»ĩp": 3654,
      "sp": 3655,
      "ĠCar": 3656,
      "ĠngÃłi": 3657,
      "ĠDanh": 3658,
      "Ġkháº©n": 3659,
      "ĠTÃ´n": 3660,
      "ĠPar": 3661,
      "ĠtrÆ°a": 3662,
      "US": 3663,
      "ium": 3664,
      "CT": 3665,
      "Ġ2010": 3666,
      "ata": 3667,
      "land": 3668,
      "ĠtÃºy": 3669,
      "ĠrÅ©": 3670,
      "70": 3671,
      "mp": 3672,
      "ĠTinh": 3673,
      "Ġchiáº¿t": 3674,
      "ĠBH": 3675,
      "âĢĿ,": 3676,
      "Ġcá»±u": 3677,
      "LÆ°u": 3678,
      "ĠHO": 3679,
      "VÃł": 3680,
      "sen": 3681,
      "Ġviá»ħn": 3682,
      "ĠVi": 3683,
      "Sá»ĳ": 3684,
      "á»°": 3685,
      "ĠKiáº¿n": 3686,
      "ThÃ¡ng": 3687,
      "tein": 3688,
      "ĠTháº£o": 3689,
      "eth": 3690,
      "43": 3691,
      "ĠtÃ¡": 3692,
      "98": 3693,
      "ĠthÃ´": 3694,
      "Ġcaf": 3695,
      "ĠtrÃ´i": 3696,
      "ĠkhÃ¡t": 3697,
      "Ġchá»ĳi": 3698,
      "IM": 3699,
      "ĠTrÃŃ": 3700,
      "ĠlÃºa": 3701,
      "Ġlá»ıng": 3702,
      "ĠLáº¡c": 3703,
      "ĠÄĳá»ģn": 3704,
      "ĠMáº¡ng": 3705,
      "ime": 3706,
      "ĠTháº¯ng": 3707,
      "Top": 3708,
      "ĠNÃ³i": 3709,
      "Máº·c": 3710,
      "ĠHáºŃu": 3711,
      "ĠAS": 3712,
      "ĠDiá»ħn": 3713,
      "ĠmÄĥng": 3714,
      "Ġdá»«a": 3715,
      "ĠTriá»ĩu": 3716,
      "Ġam": 3717,
      "ĠLá»ĭch": 3718,
      "Nguá»ĵn": 3719,
      "ĠSy": 3720,
      "ower": 3721,
      "Ġná»¥": 3722,
      "âĢĶ": 3723,
      "NháºŃn": 3724,
      "ĠxÆ¡": 3725,
      "ĠPhil": 3726,
      "Ġcua": 3727,
      "ĠMac": 3728,
      "ÄĲÄĥng": 3729,
      "Ġrá»¡": 3730,
      "ase": 3731,
      "uch": 3732,
      "====": 3733,
      "VáºŃy": 3734,
      "Ġxáº£": 3735,
      "Ġtrá»ĳn": 3736,
      "ĠChÃºc": 3737,
      "ĠÄĲá»Ĺ": 3738,
      "42": 3739,
      "ĠVÃło": 3740,
      "Ġthá»£": 3741,
      "BÃ¡n": 3742,
      "Ġbáº¥m": 3743,
      "ve": 3744,
      "ĠngÃ¢m": 3745,
      "AY": 3746,
      "Tháº¿": 3747,
      "ĠTT": 3748,
      "Ġlá»£": 3749,
      "ĠnÃ¡m": 3750,
      "CÃ²n": 3751,
      "ĠÃ¢n": 3752,
      "Ġtáº§n": 3753,
      "Ġnháº¡t": 3754,
      "ĠChá»ĭ": 3755,
      "Ġhiáº¿n": 3756,
      "Ġchai": 3757,
      "Ġtrá»Ļm": 3758,
      "ĠVá»¥": 3759,
      "Ġmáº¡o": 3760,
      "90": 3761,
      "ĠCuá»Ļc": 3762,
      "ĠÄĲá»ģ": 3763,
      "Ġnáº¿p": 3764,
      "ĠTrÃł": 3765,
      "ĠvÄ©": 3766,
      "ose": 3767,
      "á»¥t": 3768,
      "EL": 3769,
      "Ġshow": 3770,
      "Ġráº¯n": 3771,
      "ĠlÃ£m": 3772,
      "Ġcháº½": 3773,
      "ThÃłnh": 3774,
      "Ġtia": 3775,
      "ĠmÃ¢y": 3776,
      "Ġmá»ĳc": 3777,
      "ĠCÆ°á»Ŀng": 3778,
      "ĠCÃ¡t": 3779,
      "ĠVÃĢ": 3780,
      "Ġngá»įn": 3781,
      "ave": 3782,
      "ĠTrá»ĭ": 3783,
      "Ġde": 3784,
      "Æ°á»£n": 3785,
      "Ġheo": 3786,
      "Ġká»ĩ": 3787,
      "Ġhi": 3788,
      "bank": 3789,
      "ĠMÆ°á»Ŀi": 3790,
      "ĠÄĳáº±ng": 3791,
      "eet": 3792,
      "ct": 3793,
      "ma": 3794,
      "ĠThá»į": 3795,
      "martphone": 3796,
      "Ġlá»ĵ": 3797,
      "Ġváº¡n": 3798,
      "ale": 3799,
      "Ìĥ": 3800,
      "Ġcá»ĳc": 3801,
      "Ġ2011": 3802,
      "ĠMad": 3803,
      "ĠtÃŃm": 3804,
      "Ġngá»Ļ": 3805,
      "itcoin": 3806,
      "IC": 3807,
      "AO": 3808,
      "ĠChuyÃªn": 3809,
      "ree": 3810,
      "Ġ38": 3811,
      "Ġbe": 3812,
      "Ġoxy": 3813,
      "ĠTO": 3814,
      "ĠGMT": 3815,
      "Ġtam": 3816,
      "Ġbáº£y": 3817,
      "ĠÄĤ": 3818,
      "ÃĤN": 3819,
      "ivi": 3820,
      "Ġmá»Ļng": 3821,
      "ca": 3822,
      "Ġrung": 3823,
      "ĠThi": 3824,
      "ĠnhÆ°á»£ng": 3825,
      "ĠLoáº¡i": 3826,
      "Ġquyáº¿n": 3827,
      "áº¯k": 3828,
      "áº»o": 3829,
      "CÃ¢u": 3830,
      "ĠCLB": 3831,
      "Giáº£i": 3832,
      "ĠÄĲÃ¡nh": 3833,
      "ĠChÆ¡i": 3834,
      "Ġau": 3835,
      "Ġháº¹p": 3836,
      "41": 3837,
      "Ġsoáº¡n": 3838,
      "ĠPC": 3839,
      "ĠLy": 3840,
      "ĠThá»¥y": 3841,
      "edia": 3842,
      "Ġvan": 3843,
      "áº¨": 3844,
      "ĠVá»ĭ": 3845,
      "ĠII": 3846,
      "Sh": 3847,
      "ĠÄĲá»«ng": 3848,
      "Ġphiá»ģn": 3849,
      "ĠLao": 3850,
      "Ġdá»įa": 3851,
      "ones": 3852,
      "ĠLam": 3853,
      "Ġkhoan": 3854,
      "Ġtháº§m": 3855,
      "ĠYÃªu": 3856,
      "ert": 3857,
      "nÄĥm": 3858,
      "ics": 3859,
      "ieu": 3860,
      "ews": 3861,
      "ĠHiá»ĩu": 3862,
      "Ġkhá»ķng": 3863,
      "ĠÄĳÃ¹a": 3864,
      "ĠbáºŃn": 3865,
      "ĠBÃ¹i": 3866,
      "ÃĿ": 3867,
      "Ġpl": 3868,
      "ĠSu": 3869,
      "ota": 3870,
      "ĠChung": 3871,
      "ĠSe": 3872,
      "ĠNháºŃn": 3873,
      "ĠTÃ¬m": 3874,
      "tral": 3875,
      "Ãļ": 3876,
      "Ĥ«": 3877,
      "ĠInd": 3878,
      "79": 3879,
      "else": 3880,
      "Kinh": 3881,
      "ĠcÆ°á»Ľp": 3882,
      "ĠTÃ²a": 3883,
      "Ġhuyá»ģn": 3884,
      "ĠtrÃ¡ng": 3885,
      "Ġbá»ĵn": 3886,
      "Ġis": 3887,
      "ngÃły": 3888,
      "ĠTrÃ²": 3889,
      "**": 3890,
      "ĠmÃ³ng": 3891,
      "ĠSc": 3892,
      "aysia": 3893,
      "ĠPhÃ¢n": 3894,
      "ĠchiÃªu": 3895,
      "ĠMÃ¬nh": 3896,
      "ead": 3897,
      "ĠKá»¹": 3898,
      "Ġ32": 3899,
      "ĠTÃŃn": 3900,
      "ĠCáº£": 3901,
      "Ġhá»ıa": 3902,
      "ĠHuyá»ĩn": 3903,
      "Ġrá»±c": 3904,
      "ĠchÃ¬": 3905,
      "ĠBao": 3906,
      "ĠEl": 3907,
      "ĠlÃ´i": 3908,
      "Ġsofa": 3909,
      "ext": 3910,
      "Ġtiá»ħn": 3911,
      "ĠdÃ£": 3912,
      "ĠmÃłi": 3913,
      "ĠFl": 3914,
      "ĠdÄ©": 3915,
      "ĠBá»ĵ": 3916,
      "ĠEd": 3917,
      "Bá»ĩnh": 3918,
      "ĠbÃ¹ng": 3919,
      "Ġbáº¯p": 3920,
      "ĠÄĳáº¯p": 3921,
      "DÃ¹": 3922,
      "Ġchanh": 3923,
      "Ġmassage": 3924,
      "ĠchÃ¢m": 3925,
      "ĠCha": 3926,
      "VÃło": 3927,
      "ions": 3928,
      "ĠhÃ²": 3929,
      "Ġno": 3930,
      "Ġsim": 3931,
      "ĠquÃ¡i": 3932,
      "ĠTháºŃt": 3933,
      "Ġkhá»©": 3934,
      "ĠÄĳá»ĵn": 3935,
      "Ġmá»ĵ": 3936,
      "Pháº§n": 3937,
      "Ġbáº¿n": 3938,
      "ĠDÆ°á»Ľi": 3939,
      "ĠÄĲÃ¡": 3940,
      "Ġac": 3941,
      "Ġclip": 3942,
      "html": 3943,
      "Ġup": 3944,
      "att": 3945,
      "ĠMay": 3946,
      "ĠMá»Ļc": 3947,
      "ĠThá»ĳng": 3948,
      "Ġlá»£n": 3949,
      "ĠcÃ£i": 3950,
      "ĠLÃło": 3951,
      "Ġleo": 3952,
      "Ġnhan": 3953,
      "GMT": 3954,
      "Ġser": 3955,
      "Ġcá»¥m": 3956,
      "ĠSon": 3957,
      "ĠGalaxy": 3958,
      "ĠkhÃ¡i": 3959,
      "ĠHÃĢ": 3960,
      "ĠBiá»ĥn": 3961,
      "ĠNhá»Ŀ": 3962,
      "ĠChá»įn": 3963,
      "Ġlá»¡": 3964,
      "51": 3965,
      "Ġlá»Ļc": 3966,
      "ĠsÃºt": 3967,
      "agen": 3968,
      "Ġnho": 3969,
      "Mua": 3970,
      "AC": 3971,
      "ĠvuÃ´ng": 3972,
      "ĠTV": 3973,
      "Ġdá»įn": 3974,
      "ĠNGH": 3975,
      "CÃ¹ng": 3976,
      "Ġinternet": 3977,
      "ĠxÃ³m": 3978,
      "ĠTy": 3979,
      "ĠCá»Ńa": 3980,
      "ĠÄĳá»ĩm": 3981,
      "ĠlÄĥn": 3982,
      "ĠCáº£m": 3983,
      "ĠÄĲá»ĵ": 3984,
      "Ġxáº¡": 3985,
      "ĠCro": 3986,
      "Táº¥t": 3987,
      "Ġcáº£ng": 3988,
      "Ġmuá»Ļn": 3989,
      "Ġká»ģ": 3990,
      "ĠLÄĥng": 3991,
      "ĠTráº»": 3992,
      "ĠCr": 3993,
      "ĠÃĤm": 3994,
      "Ġláº¯c": 3995,
      "ĠÄĲÃ£": 3996,
      "IS": 3997,
      "ĠBu": 3998,
      "bet": 3999,
      "onda": 4000,
      "oto": 4001,
      "Ġapp": 4002,
      "ĠLá»¥c": 4003,
      "ĠcÆ°á»Ľc": 4004,
      "ĠMáº«u": 4005,
      "ĠVÃłng": 4006,
      "ĠÄĳoáº¡t": 4007,
      "Ġtráº¡m": 4008,
      "Ġxáº¿": 4009,
      "Tag": 4010,
      "Ġcay": 4011,
      "TrÆ°á»Ŀng": 4012,
      "ÄĲiá»ĩn": 4013,
      "BÃ¬nh": 4014,
      "viet": 4015,
      "Ġkhuyáº¿t": 4016,
      "ĠDiá»ĩp": 4017,
      "ĠLá»£i": 4018,
      "Ġsen": 4019,
      "ĠÄĲÆ¡n": 4020,
      "Æ°á»Łi": 4021,
      "ngÆ°á»Ŀi": 4022,
      "ĠÄĲÃ´": 4023,
      "ĠMáº¡nh": 4024,
      "bao": 4025,
      "https": 4026,
      "enn": 4027,
      "ÃŃu": 4028,
      "Ġngá»±a": 4029,
      "org": 4030,
      "Ġ00": 4031,
      "ĠÃ¡m": 4032,
      "Ġcá»ĳng": 4033,
      "ÃĮNH": 4034,
      "Má»Ĺi": 4035,
      "Ġtá»į": 4036,
      "ĠbÃ³n": 4037,
      "ĠVÅ©ng": 4038,
      "Ġthiá»ĩp": 4039,
      "atch": 4040,
      "ĠSan": 4041,
      "AD": 4042,
      "ĠghÃ©": 4043,
      "ĠchÃ©p": 4044,
      "ĠmÆ°Æ¡i": 4045,
      "Ġtháº¥u": 4046,
      "Ġváº·t": 4047,
      "ĠkhÃ©o": 4048,
      "An": 4049,
      "pe": 4050,
      "Cam": 4051,
      "BS": 4052,
      "elsea": 4053,
      "ĠrÃ¨n": 4054,
      "Ġcai": 4055,
      "Ġtá»įa": 4056,
      "Ġná»ģ": 4057,
      "Ġgiáº¥u": 4058,
      "ĠlÆ°á»¡i": 4059,
      "2011": 4060,
      "ĠÄĤn": 4061,
      "ama": 4062,
      "ĠÄĳe": 4063,
      "áº±n": 4064,
      "ĠmÃ²n": 4065,
      "ashi": 4066,
      "NguyÃªn": 4067,
      "Ġmáº¿n": 4068,
      "ited": 4069,
      "NÃ³i": 4070,
      "ÃŃa": 4071,
      "Ġsáº¥y": 4072,
      "cl": 4073,
      "Ġcháº£": 4074,
      "lock": 4075,
      "mail": 4076,
      "Sá»Ń": 4077,
      "thÃ¡ng": 4078,
      "Ġbá»Ĺng": 4079,
      "âĢ¦]": 4080,
      "Há»ĩ": 4081,
      "ĠBaccarat": 4082,
      "Ġ400": 4083,
      "ĠniÃªm": 4084,
      "ĠngÃµ": 4085,
      "ĠÄĳuÃ´i": 4086,
      "ĠInter": 4087,
      "ĠÄĲáº·t": 4088,
      "ĠlÃŃnh": 4089,
      "ĠkhÃ³i": 4090,
      "Æ¯á»ľ": 4091,
      "ĠxÃ´ng": 4092,
      "Ġtour": 4093,
      "Ġtháº¯t": 4094,
      "ĠlÃ³t": 4095,
      "ana": 4096,
      "ĠSÃ¡ng": 4097,
      "EM": 4098,
      "ano": 4099,
      "Ġgam": 4100,
      "ĠtráºŃt": 4101,
      "ĠBáº¿n": 4102,
      "âĢĻ": 4103,
      "ĠHáº±ng": 4104,
      "Ġcafe": 4105,
      "ĠMi": 4106,
      "ĠchiÃªn": 4107,
      "ĠmÃ¹": 4108,
      "Ġgiang": 4109,
      "ere": 4110,
      "orn": 4111,
      "tu": 4112,
      "ĠCanada": 4113,
      "ĠÄĲinh": 4114,
      "Ġhá»įng": 4115,
      "Cl": 4116,
      "ĠtrÆ°á»£t": 4117,
      "Ġbá»ĳc": 4118,
      "Ġlá»ĵng": 4119,
      "Giá»Ľi": 4120,
      "ĠÄĲi": 4121,
      "AL": 4122,
      "Ġá»Ľt": 4123,
      "ĠCM": 4124,
      "ID": 4125,
      "Ġá»ĵn": 4126,
      "Ġaxit": 4127,
      "Æ¯Æł": 4128,
      "BÃ¡o": 4129,
      "ĠphÃ¡o": 4130,
      "ĠDa": 4131,
      "ĠDr": 4132,
      "ĠkhÃ¢u": 4133,
      "PhÃ¡t": 4134,
      "ĠbÃ´i": 4135,
      "ĠIs": 4136,
      "Ġphá»ķi": 4137,
      "Ġmáº£ng": 4138,
      "ĠÄĳÃºc": 4139,
      "ĠThá»ķ": 4140,
      "ĠTS": 4141,
      "ĠÄĳÃ³i": 4142,
      "he": 4143,
      "ĠTháº§y": 4144,
      "ĠDÃ¹ng": 4145,
      "lex": 4146,
      "ĠQuá»³nh": 4147,
      "Ġ198": 4148,
      "ĠXi": 4149,
      "raz": 4150,
      "ĠNet": 4151,
      "olf": 4152,
      "Viet": 4153,
      "Ġkhoe": 4154,
      "ĠhÃ£i": 4155,
      "ĠnhÆ°á»£c": 4156,
      "Nam": 4157,
      "Ġkhe": 4158,
      "Xe": 4159,
      "ĠsÆ°u": 4160,
      "ĠmÃ¡": 4161,
      "BÃł": 4162,
      "ĠCá»§a": 4163,
      "ize": 4164,
      "mi": 4165,
      "ĠFr": 4166,
      "ĠGroup": 4167,
      "IT": 4168,
      "ĠÂ·": 4169,
      "ĠthÃ¡p": 4170,
      "press": 4171,
      "ĠkhÃ´i": 4172,
      "ĠGiÃª": 4173,
      "ANH": 4174,
      "ign": 4175,
      "Ġ[âĢ¦]": 4176,
      "ĠSÃ¡u": 4177,
      "kin": 4178,
      "ĠvÆ°Æ¡n": 4179,
      "ĠÃªm": 4180,
      "Ġbá»ķng": 4181,
      "Ġquáº¡t": 4182,
      "Ġcm": 4183,
      "osted": 4184,
      "Tiáº¿p": 4185,
      "ĠDe": 4186,
      "ĠPhá»ĳ": 4187,
      "ĠnÃ¢u": 4188,
      "ÄĲáº§u": 4189,
      "reen": 4190,
      "ĠDáº§u": 4191,
      "ĠquÃ©t": 4192,
      "ĠHoÃłi": 4193,
      "ĠnÃ¡t": 4194,
      "ĠBÃ³ng": 4195,
      "ĠGu": 4196,
      "ĠHoáº·c": 4197,
      "ĠÄĲT": 4198,
      "ĠCÄĥn": 4199,
      "ĠLá»ĩ": 4200,
      "SÃ¡ng": 4201,
      "ĠquÃ¡t": 4202,
      "Ġtiá»ĩm": 4203,
      "ire": 4204,
      "ĠÐ": 4205,
      "Ġsan": 4206,
      "CÆ¡": 4207,
      "Chi": 4208,
      "Ġtao": 4209,
      "ĠCol": 4210,
      "ĠngÃło": 4211,
      "ĠháºŃn": 4212,
      "ĠxÃŃch": 4213,
      "Viá»ĩt": 4214,
      "ali": 4215,
      "ĠCÃģ": 4216,
      "Ġváº¯ng": 4217,
      "Ġkhá»Ń": 4218,
      "Ġkhoáº»": 4219,
      "ĠÆ°á»Ľt": 4220,
      "á´": 4221,
      "Ġmau": 4222,
      "ĠGold": 4223,
      "ĠtrÆ¡n": 4224,
      "Ġinch": 4225,
      "Ġchinh": 4226,
      "gr": 4227,
      "Ġ37": 4228,
      "The": 4229,
      "ĠTÃ¹ng": 4230,
      "áº·m": 4231,
      "lu": 4232,
      "Ġdáº¡i": 4233,
      "ĠMalaysia": 4234,
      "ĠNguyá»ĩt": 4235,
      "Ná»Ļi": 4236,
      "Ġpháº¿": 4237,
      "Há»įc": 4238,
      "ĠÄĳÃ¡y": 4239,
      "Thanh": 4240,
      "ĠkhoÃ¡c": 4241,
      "ĠlÃµi": 4242,
      "Ġinox": 4243,
      "ĠThay": 4244,
      "ĠNo": 4245,
      "ĠcháºŃu": 4246,
      "ĠÄĳá»Ĺ": 4247,
      "Æ¯ÆłNG": 4248,
      "ene": 4249,
      "by": 4250,
      "PS": 4251,
      "Ġgiam": 4252,
      "Ġmá»ķ": 4253,
      "ĠmÃ²": 4254,
      "ĠChÃ¢n": 4255,
      "ĠCÃ¢y": 4256,
      "Ġngáº§m": 4257,
      "ANG": 4258,
      "KhÃ¡ch": 4259,
      "ĠMadrid": 4260,
      "aster": 4261,
      "69": 4262,
      "Ġtriá»ģu": 4263,
      "ĠMon": 4264,
      "ĠTham": 4265,
      "Ġhang": 4266,
      "ĠSEO": 4267,
      "ote": 4268,
      "MÃ£": 4269,
      "ÄĲÃ¡nh": 4270,
      "ĠchÃ©n": 4271,
      "ĠSÄ©": 4272,
      "ĠHar": 4273,
      "ĠChÃ¡nh": 4274,
      "ero": 4275,
      "ĠTáº¥n": 4276,
      "ĠrÃło": 4277,
      "á»ıa": 4278,
      "Ngay": 4279,
      "ĠcÃ´n": 4280,
      "ļI": 4281,
      "Ġhao": 4282,
      "udio": 4283,
      "Máº«u": 4284,
      "aph": 4285,
      "CB": 4286,
      "ĠVÃ´": 4287,
      "tin": 4288,
      "áº¢N": 4289,
      "IÃĬN": 4290,
      "ĠMÃł": 4291,
      "ĠCHá»": 4292,
      "Ġkg": 4293,
      "ĠCÃĶNG": 4294,
      "Ġlam": 4295,
      "ĠhÅ©": 4296,
      "ivers": 4297,
      "Ġnhá»ī": 4298,
      "ãģ": 4299,
      "ĠtrÃłng": 4300,
      "PhÆ°Æ¡ng": 4301,
      "ĠgáºŃt": 4302,
      "ĠKiáº¿m": 4303,
      "iá»ģng": 4304,
      "67": 4305,
      "ĠxÄĥm": 4306,
      "ĠhoÃł": 4307,
      "Ġ39": 4308,
      "ÄĲá»įc": 4309,
      "ann": 4310,
      "ĠlÆ°á»¡ng": 4311,
      "ĠHÃ´m": 4312,
      "mar": 4313,
      "Ġsmartphone": 4314,
      "Ġnháº§m": 4315,
      "eck": 4316,
      "ĠngoÃ¡i": 4317,
      "Há»Ļi": 4318,
      "ĠCamp": 4319,
      "ĠHuá»³nh": 4320,
      "ĠThÃŃch": 4321,
      "ĠThá»ĭnh": 4322,
      "ĠgiÃ¡n": 4323,
      "Ġkáº½": 4324,
      "ĠTÃ¡c": 4325,
      "opy": 4326,
      "GT": 4327,
      "ĠMicro": 4328,
      "trong": 4329,
      "á»Ńu": 4330,
      "ONG": 4331,
      "Ġmini": 4332,
      "ĠThÃªm": 4333,
      "ĠRáº¥t": 4334,
      "ohn": 4335,
      "ĠTá»ĳt": 4336,
      "Thu": 4337,
      "Ġchuá»ĳi": 4338,
      "ĠdÃ²": 4339,
      "ĠmÃ©t": 4340,
      "ĠTháº©m": 4341,
      "ory": 4342,
      "ownload": 4343,
      "ĠchÃ¬m": 4344,
      "ĠOp": 4345,
      "ĠÄĳiÃªn": 4346,
      "ĠÃ´n": 4347,
      "Ġnghá»ĭch": 4348,
      "ĠTÃº": 4349,
      "Khu": 4350,
      "á»Ģ": 4351,
      "NhÃ¢n": 4352,
      "Ġsáº¹o": 4353,
      "Thá»§": 4354,
      "ĠOr": 4355,
      "ĠThÃ¢n": 4356,
      "LÃºc": 4357,
      "Cáº§n": 4358,
      "300": 4359,
      "áº®": 4360,
      "ta": 4361,
      "Ã½t": 4362,
      "PhÃ²ng": 4363,
      "ji": 4364,
      "Ġváº£": 4365,
      "ĠIS": 4366,
      "ĠÄĳáº¡n": 4367,
      "AG": 4368,
      "ĠðŁ": 4369,
      "ĠTháº¡ch": 4370,
      "ĠBÆ°á»Ľc": 4371,
      "kho": 4372,
      "Ġtang": 4373,
      "ĠTá»·": 4374,
      "ĠHá»Ĺ": 4375,
      "Ġhung": 4376,
      "Ġláº¥p": 4377,
      "ĠMU": 4378,
      "ï¸": 4379,
      "ĠSiÃªu": 4380,
      "ĠlÃŃt": 4381,
      "Ġmá»Ļc": 4382,
      "ĠPhÆ°á»£ng": 4383,
      "ĠChelsea": 4384,
      "ĠDÆ°á»£c": 4385,
      "Ľn": 4386,
      "ĠtrÄ©": 4387,
      "IV": 4388,
      "port": 4389,
      "ron": 4390,
      "rom": 4391,
      "Ġvn": 4392,
      "aser": 4393,
      "Ġviet": 4394,
      "Quy": 4395,
      "ĠCáº©m": 4396,
      "Ġnang": 4397,
      "va": 4398,
      "Ġmod": 4399,
      "ĠTáº¡o": 4400,
      "ĠAP": 4401,
      "Ġti": 4402,
      "Ġbá»ıng": 4403,
      "orm": 4404,
      "Ġláº¡m": 4405,
      "Ġtá»ıi": 4406,
      "omes": 4407,
      "de": 4408,
      "ĮC": 4409,
      "Ġ48": 4410,
      "ĠXuáº¥t": 4411,
      "Hoa": 4412,
      "ĠTrinh": 4413,
      "Ġtre": 4414,
      "ĠTim": 4415,
      "ance": 4416,
      "VÄĥn": 4417,
      "Ġen": 4418,
      "LÄĲ": 4419,
      "soft": 4420,
      "Ġ88": 4421,
      "Ġstr": 4422,
      "ĠvÆ°á»Ľng": 4423,
      "ĠBÃłn": 4424,
      "Ġtá»Ľ": 4425,
      "Ġnhá»©c": 4426,
      "ĠYáº¿n": 4427,
      "Ġcháº©n": 4428,
      "Ġ=>": 4429,
      "Ġven": 4430,
      "TO": 4431,
      "Ġmáº¯m": 4432,
      "Ġkhoai": 4433,
      "Ġyou": 4434,
      "Ġpháº³ng": 4435,
      "Ġres": 4436,
      "65": 4437,
      "Ġkhiáº¿u": 4438,
      "Ġbá»ī": 4439,
      "ĠHáº¡nh": 4440,
      "ĠMiá»ģn": 4441,
      "wit": 4442,
      "Ġthá»ķi": 4443,
      "ĠmÆ°á»£t": 4444,
      "ĠnÆ°Æ¡ng": 4445,
      "ĠBay": 4446,
      "ĠÆ°ng": 4447,
      "ĠÄĳáº»": 4448,
      "ï¸ı": 4449,
      "Ġnáº¯p": 4450,
      "Ġmm": 4451,
      "ĠphÆ¡i": 4452,
      "HO": 4453,
      "má»Ļt": 4454,
      "page": 4455,
      "2010": 4456,
      "Báº£o": 4457,
      "ollagen": 4458,
      "ild": 4459,
      "ĠvÃ¡ch": 4460,
      "ĠKhuyáº¿n": 4461,
      "ĠÄĳáº§m": 4462,
      "Cuá»Ļc": 4463,
      "aig": 4464,
      "ĠQuÃ¡n": 4465,
      "per": 4466,
      "ĠHá»ĵi": 4467,
      "ĠTháº¡nh": 4468,
      "ĠMÃłu": 4469,
      "Du": 4470,
      "ĠchÃ¨": 4471,
      "Ġse": 4472,
      "RO": 4473,
      "Báº£n": 4474,
      "Ġnháº¯m": 4475,
      "ĠBÄĲ": 4476,
      "Ġá»ĳp": 4477,
      "HÃ´m": 4478,
      "ĠCen": 4479,
      "PL": 4480,
      "ley": 4481,
      "ĠCuá»ĳi": 4482,
      "))": 4483,
      "ĠDiá»ĩn": 4484,
      "ĠMo": 4485,
      "Chá»ĭ": 4486,
      "Ġ99": 4487,
      "ĠÃģo": 4488,
      "Ġngá»©a": 4489,
      "ĠâĢĭ": 4490,
      "ĠvÄ©nh": 4491,
      "ĠsÆ°Æ¡ng": 4492,
      "áº¿m": 4493,
      "ÄĲiá»ĥm": 4494,
      "pool": 4495,
      "Ġman": 4496,
      "ĠtrÄĥng": 4497,
      "ĠGiá»Ŀ": 4498,
      "ĠHotline": 4499,
      "Ta": 4500,
      "vent": 4501,
      "BC": 4502,
      "ĠTHá»": 4503,
      "Ġdáº¡o": 4504,
      "âľ": 4505,
      "ĠgÅ©i": 4506,
      "ĠTuyÃªn": 4507,
      "Ġxá»īu": 4508,
      "Ġcá»ĵn": 4509,
      "TÃ¡c": 4510,
      "ĠKiÃªn": 4511,
      "ĠthoÃ¡i": 4512,
      "NN": 4513,
      "ÃĴ": 4514,
      "ĠPV": 4515,
      "ĠTuyáº¿t": 4516,
      "á»µ": 4517,
      "ĠPhilipp": 4518,
      "ĠdÃ¢ng": 4519,
      "ĠPháº£i": 4520,
      "Ġrá»ĳt": 4521,
      "Ġtivi": 4522,
      "ĠClub": 4523,
      "ĠNhÃ¬n": 4524,
      "ĠlÄĥng": 4525,
      "oyota": 4526,
      "Ġrá»ĵng": 4527,
      "mÃ¡y": 4528,
      "tent": 4529,
      "ĠÄĲáº·ng": 4530,
      "ĠXanh": 4531,
      "ĠtrÃ¢n": 4532,
      "ĠAt": 4533,
      "ĠsÆ°á»Ľng": 4534,
      "ĠNÆ¡i": 4535,
      "Ġ120": 4536,
      "Ġslot": 4537,
      "Iá»ĨT": 4538,
      "onesia": 4539,
      "ĠlÃ¹i": 4540,
      "eu": 4541,
      "ĠÄĳÃ¢m": 4542,
      "Ġdáº¯t": 4543,
      "ĠTháº¥t": 4544,
      "een": 4545,
      "Ġgiá»įt": 4546,
      "78": 4547,
      "Tham": 4548,
      "ĠÃ¢u": 4549,
      "ĠTáº§n": 4550,
      "áº¬T": 4551,
      "Ġdown": 4552,
      "ĠBáº£y": 4553,
      "kra": 4554,
      "ĠlÃ¹ng": 4555,
      "ĠTuá»ķi": 4556,
      "á»Ĩ": 4557,
      "iel": 4558,
      "ĠNghiÃªn": 4559,
      "ĠsÃ¢m": 4560,
      "ĠÄĲáº¹p": 4561,
      "TÃ¬nh": 4562,
      "ĠBitcoin": 4563,
      "Ġquáº·ng": 4564,
      "ss": 4565,
      "ĠrÃł": 4566,
      "ĠTrá»ĭnh": 4567,
      "áº¦N": 4568,
      "ĠTrá»Ŀi": 4569,
      "outube": 4570,
      "ĠStr": 4571,
      "hip": 4572,
      "ĠcÃ¡m": 4573,
      "Ġlá»©a": 4574,
      "iu": 4575,
      "ĠSá»©c": 4576,
      "ĠvÃº": 4577,
      "Ġláº·p": 4578,
      "ĠEuro": 4579,
      "ĠngÆ°": 4580,
      ",\"": 4581,
      "ĠPrem": 4582,
      "ĠHonda": 4583,
      "Ġwifi": 4584,
      "Ġrao": 4585,
      "razil": 4586,
      "Má»¹": 4587,
      "ĠsÆ°ng": 4588,
      "enc": 4589,
      "Ġblog": 4590,
      "ĠCháº³ng": 4591,
      "ĠÄĳá»ĵi": 4592,
      "Ġcáº¯n": 4593,
      "oker": 4594,
      "Ġ2009": 4595,
      "Ġbom": 4596,
      "ĠMÃ´i": 4597,
      "ĠNguá»ĵn": 4598,
      "Ġhoan": 4599,
      "ĠthÃ¬a": 4600,
      "Ġthá»ĭnh": 4601,
      "ĠÃģnh": 4602,
      "iverpool": 4603,
      "lymp": 4604,
      "uchia": 4605,
      "ĠChamp": 4606,
      "MÃ¬nh": 4607,
      "NT": 4608,
      "Ġváº¯c": 4609,
      "uan": 4610,
      "Ġváº¥t": 4611,
      "ĠCáº¥p": 4612,
      "ĠbuÃ´ng": 4613,
      "ti": 4614,
      "ĠBá»ĭ": 4615,
      "ria": 4616,
      "NhÃ¬n": 4617,
      "CáºŃp": 4618,
      "TÃŃnh": 4619,
      "ĠÃ³c": 4620,
      "Ġ250": 4621,
      "Máº·t": 4622,
      "Iá»ĨN": 4623,
      "ĠEnter": 4624,
      "Ġmarketing": 4625,
      "ĠgiÃ²n": 4626,
      "ĠSÃ²ng": 4627,
      "ĠEU": 4628,
      "ĠViettel": 4629,
      "ĠPlus": 4630,
      "ĠxÃło": 4631,
      "ĠTrÃ¬nh": 4632,
      "Iá»Ģ": 4633,
      "Ġháº£": 4634,
      "Ġrá»¥ng": 4635,
      "ĠNhu": 4636,
      "EC": 4637,
      "ĠTÃªn": 4638,
      "ĠBáº£ng": 4639,
      "Ġham": 4640,
      "dr": 4641,
      "Ġprotein": 4642,
      "erm": 4643,
      "ĠÄĳá»Ľn": 4644,
      "Ġ2008": 4645,
      "ĠTáº¿": 4646,
      "arb": 4647,
      "ĠQuáº£": 4648,
      "Ġle": 4649,
      "inc": 4650,
      "ĠHÃ¡n": 4651,
      "EA": 4652,
      "ery": 4653,
      "ĠWh": 4654,
      "ĠGÃ¬": 4655,
      "ĠIt": 4656,
      "Ġá»¨ng": 4657,
      "ĠGIÃģ": 4658,
      "COM": 4659,
      "Ġcuá»Ļn": 4660,
      "Nguyá»ħn": 4661,
      "Hot": 4662,
      "Ġlá»ģ": 4663,
      "ĠHe": 4664,
      "Ġhiáº¿u": 4665,
      "ĠnhÄĥn": 4666,
      "KH": 4667,
      "ĠTrá»±c": 4668,
      "Ġlá»Ļn": 4669,
      "Ġrá»ī": 4670,
      "Ġ33": 4671,
      "yo": 4672,
      "ĠLED": 4673,
      "ĠYou": 4674,
      "ĠUnited": 4675,
      "ĠLÃ£nh": 4676,
      "Camera": 4677,
      "Ġhá»¥": 4678,
      "FA": 4679,
      "Ġ600": 4680,
      "Ġmáº·n": 4681,
      "Lu": 4682,
      "TÃªn": 4683,
      "Ġhá»Ł": 4684,
      "ĠmÅ©": 4685,
      "ĠtÃ¹ng": 4686,
      "ĠSÃ¡ch": 4687,
      "anc": 4688,
      "ki": 4689,
      "ĠnhÅ©ng": 4690,
      "ĠgÃ¡nh": 4691,
      "Ġyáº¿n": 4692,
      "Kho": 4693,
      "ĠgÃ£": 4694,
      "ĠmÃ´ng": 4695,
      "que": 4696,
      "ll": 4697,
      "ĠxÃł": 4698,
      "senal": 4699,
      "Ġlá»įt": 4700,
      "ĠdÆ°a": 4701,
      "ĠnÃ©m": 4702,
      "Ġ55": 4703,
      "Gia": 4704,
      "Ġdai": 4705,
      "ĠHi": 4706,
      "mg": 4707,
      "ðĿ": 4708,
      "ĠBlack": 4709,
      "Ġnguyá»ĩt": 4710,
      "ĠláºŃu": 4711,
      "Chia": 4712,
      "ĠNháº¡c": 4713,
      "ĠOlymp": 4714,
      "ĠSal": 4715,
      "ĠSup": 4716,
      "Ġgai": 4717,
      "Ġngá»£i": 4718,
      "Danh": 4719,
      "tÃ´": 4720,
      "Ġkhoáº£nh": 4721,
      "ÃĢI": 4722,
      "Ġmáº¹o": 4723,
      "Ġao": 4724,
      "OR": 4725,
      "cho": 4726,
      "Ġcomment": 4727,
      "ĠMÃ´n": 4728,
      "ĠhoÃłi": 4729,
      "ola": 4730,
      "ĠChr": 4731,
      "ĠkhoÄĥn": 4732,
      "Web": 4733,
      "ĠKhai": 4734,
      "ĠgÃ¬n": 4735,
      "ĠHS": 4736,
      "ĠSeo": 4737,
      "ĠÄĳáº¯n": 4738,
      "Ġdá»ĳc": 4739,
      "ĠCÃł": 4740,
      "ĠnghiÃªng": 4741,
      "ĠNa": 4742,
      "ational": 4743,
      "ĠghÃ©t": 4744,
      "EAN": 4745,
      "Ġit": 4746,
      "Game": 4747,
      "ĠbÄĥn": 4748,
      "ĠLáºŃp": 4749,
      "ĠchÆ°ng": 4750,
      "Ġrun": 4751,
      "ĠLá»Ŀi": 4752,
      "sm": 4753,
      "Ġxoa": 4754,
      "ĠCal": 4755,
      "ÄĲÃ³": 4756,
      "ĠVáº¥n": 4757,
      "ĠMil": 4758,
      "ĠThiáº¿u": 4759,
      "¨C": 4760,
      "âĢ¦âĢ¦âĢ¦âĢ¦": 4761,
      "ĠÄĲá»įc": 4762,
      "Ġquá»·": 4763,
      "ĠThá»«a": 4764,
      "ĠTrÃ¡i": 4765,
      "tra": 4766,
      "ChuyÃªn": 4767,
      "ĠQuyá»ģn": 4768,
      "Le": 4769,
      "ka": 4770,
      "ĠÄĲiá»ģn": 4771,
      "ĠRo": 4772,
      "Ġlogo": 4773,
      "ane": 4774,
      "CD": 4775,
      "Ġtem": 4776,
      "ĠdáºŃp": 4777,
      "Email": 4778,
      "ĠHÄĲND": 4779,
      "Ġ75": 4780,
      "ĠNhÆ¡n": 4781,
      "ĠCá»¦": 4782,
      "Ġcá»§ng": 4783,
      "So": 4784,
      "ĠCáºŃp": 4785,
      "gia": 4786,
      "Ġná»ĳt": 4787,
      "ĠToÃ¡n": 4788,
      "GS": 4789,
      "Ġtuyáº¿t": 4790,
      "ÄĲÃ£": 4791,
      "ä¸": 4792,
      "ĠUkra": 4793,
      "Ġfacebook": 4794,
      "Ġká»ī": 4795,
      "ĠÄĳiá»ģn": 4796,
      "erc": 4797,
      "ĠCor": 4798,
      "ĠÄĳun": 4799,
      "Ġhom": 4800,
      "ĠnhÃ£": 4801,
      "Ġnháº¥p": 4802,
      "ĠCá»©": 4803,
      "76": 4804,
      "ĠâĢĭâĢĭ": 4805,
      "ĠVáºŃn": 4806,
      "ĠOff": 4807,
      "ĠkhÃŃa": 4808,
      "Co": 4809,
      "ember": 4810,
      "tor": 4811,
      "ĠTÃ´ng": 4812,
      "ĠRob": 4813,
      "ĠlÆ°á»Ŀng": 4814,
      "ĠJohn": 4815,
      "ĠFPT": 4816,
      "sc": 4817,
      "áº¿ch": 4818,
      "ĠTai": 4819,
      "ĠFull": 4820,
      "Iá»Ĥ": 4821,
      "Sá»Ł": 4822,
      "Ġngoan": 4823,
      "UNG": 4824,
      "Ġvisa": 4825,
      "Qua": 4826,
      "Ġ2000": 4827,
      "ĠUSB": 4828,
      "Ãĥ": 4829,
      "ngh": 4830,
      "ĠThuá»ĳc": 4831,
      "ĠhÃ²n": 4832,
      "ĠCá»¦A": 4833,
      "Ġsá»ĳc": 4834,
      "ĠtÃª": 4835,
      "ĠÄĳá»¥ng": 4836,
      "Ġuá»ĳn": 4837,
      "ĠPlay": 4838,
      "TR": 4839,
      "Ġhiá»ģn": 4840,
      "ÄĲá»Ļi": 4841,
      "ĠMobile": 4842,
      "ives": 4843,
      "ts": 4844,
      "',": 4845,
      "ĠchÃªnh": 4846,
      "Ġ<": 4847,
      "thi": 4848,
      "ĠTÆ°á»Ŀng": 4849,
      "ĠMá»Ł": 4850,
      "áº¬N": 4851,
      "ĠNÄĥng": 4852,
      "ĠÄĲáº¡t": 4853,
      "ĠBrazil": 4854,
      "LÃ½": 4855,
      "oga": 4856,
      "gh": 4857,
      "ason": 4858,
      "Ġthoa": 4859,
      "ĠNiÃªn": 4860,
      "Ġcá»Ĺ": 4861,
      "ĠlÃ¢n": 4862,
      "áº¶": 4863,
      "ĠvÃ³c": 4864,
      "AP": 4865,
      "ĠMarketing": 4866,
      "Ġtrá»į": 4867,
      "ĠXuyÃªn": 4868,
      "vÃł": 4869,
      "Ġwith": 4870,
      "TáºŃp": 4871,
      "Ġáº¥p": 4872,
      "Ġbar": 4873,
      "Ġrá»Ļn": 4874,
      "thor": 4875,
      "ĠNghiá»ĩp": 4876,
      "ĠAng": 4877,
      "ĠGiÃºp": 4878,
      "Chá»įn": 4879,
      "Ġchip": 4880,
      "ĠThiá»ĩn": 4881,
      "ĠvÃ¡n": 4882,
      "ĠCá»ķng": 4883,
      "ĠTháºŃm": 4884,
      "arao": 4885,
      "ings": 4886,
      "ital": 4887,
      "ĠIndonesia": 4888,
      "ĠVal": 4889,
      "ĠYork": 4890,
      "iano": 4891,
      "Cá»¥": 4892,
      "ĠWord": 4893,
      "ĠxÃ¡m": 4894,
      "accine": 4895,
      "ĠNews": 4896,
      "ari": 4897,
      "ĠCasino": 4898,
      "Báº£ng": 4899,
      "FF": 4900,
      "Ġthoáº£ng": 4901,
      "Ġdáº»o": 4902,
      "ĠLÆ°á»£t": 4903,
      "ĠcÆ°á»¡ng": 4904,
      "ĠMÃ¹a": 4905,
      "Ã²m": 4906,
      "arm": 4907,
      "ĠkhoÃ¡": 4908,
      "ĠThÄĥng": 4909,
      "Cháº¥t": 4910,
      "be": 4911,
      "ĠCampuchia": 4912,
      "Soi": 4913,
      "Má»įi": 4914,
      "ĠMin": 4915,
      "ĠToyota": 4916,
      "Ġngá»¥": 4917,
      "ĠTÃ¹y": 4918,
      "HÆ¡n": 4919,
      "ĠPhilippines": 4920,
      "ĠthÃ¨m": 4921,
      "ĠLÆ°á»£ng": 4922,
      "Ġoff": 4923,
      "Ãºm": 4924,
      "ĠWebsite": 4925,
      "ĠtÃ¡m": 4926,
      "ĠHiá»ģn": 4927,
      "Ġcode": 4928,
      "Ġráº¯c": 4929,
      "Ġyáº¿t": 4930,
      "oly": 4931,
      "Ġsanh": 4932,
      "Ġtá»±u": 4933,
      "ĠPhá»§": 4934,
      "ĠVideo": 4935,
      "ĠSH": 4936,
      "ĠWin": 4937,
      "ĠbÆ¡": 4938,
      "Ġbá»Ļi": 4939,
      "ĠChá»©ng": 4940,
      "NÆ°á»Ľc": 4941,
      "ĠmÆ°á»£n": 4942,
      "ĠBlog": 4943,
      "ĠGh": 4944,
      "qua": 4945,
      "ĠnÃ´n": 4946,
      "ĠchÃ¡o": 4947,
      "ĠÄĳoáº£n": 4948,
      "QÄĲ": 4949,
      "ĠÄĲáº¿": 4950,
      "che": 4951,
      "ĠkhoÃ¡i": 4952,
      "ĠSte": 4953,
      "Ba": 4954,
      "âĢĶâĢĶ": 4955,
      "ĠVua": 4956,
      "AND": 4957,
      "ĠVáºŃt": 4958,
      "red": 4959,
      "ĠThuáºŃt": 4960,
      "Ġdá»ĵi": 4961,
      "Chiá»ģu": 4962,
      "Â»": 4963,
      "Ġcuá»ĵng": 4964,
      "Ã¹n": 4965,
      "TÆ°": 4966,
      "ĠTik": 4967,
      "CÃ¡i": 4968,
      "agon": 4969,
      "ĠhÆ°u": 4970,
      "MS": 4971,
      "Ġthuáº«n": 4972,
      "Tráº£": 4973,
      "ĠVáº¡n": 4974,
      "Ġnáº£y": 4975,
      "ĠCá»Ńu": 4976,
      "PhÃ¢n": 4977,
      "ĠlÃª": 4978,
      "rl": 4979,
      "ita": 4980,
      "Chu": 4981,
      "Há»ĵ": 4982,
      "ĠCháº¯c": 4983,
      "ĠMau": 4984,
      "náº¿u": 4985,
      "á»ĩm": 4986,
      "ĠBÄĲS": 4987,
      "Ġme": 4988,
      "ner": 4989,
      "Ġ34": 4990,
      "ĠluÃ¢n": 4991,
      "Pr": 4992,
      "=\"": 4993,
      "ĠHáº§u": 4994,
      "ĠMá»": 4995,
      "ĠCá»ĳ": 4996,
      "MP": 4997,
      "ĠChampions": 4998,
      "Ġquyá»ĥn": 4999,
      "Ġclub": 5000,
      "Má»Ľi": 5001,
      "âĤ«": 5002,
      "ĠlÃ©o": 5003,
      "ĠDá»¥ng": 5004,
      "IA": 5005,
      "Ġcáº¯p": 5006,
      "Ġnáº¡i": 5007,
      "LC": 5008,
      "ĠÄĲáº£o": 5009,
      "ÃĢN": 5010,
      "giá»": 5011,
      "Ġcá»į": 5012,
      "Ġhá»¥t": 5013,
      "ĠLiverpool": 5014,
      "able": 5015,
      "ĠGrand": 5016,
      "TX": 5017,
      "Xin": 5018,
      "ĠÆ¯": 5019,
      "ĠViáº¿t": 5020,
      "PH": 5021,
      "nhÃł": 5022,
      "ya": 5023,
      "ï¼": 5024,
      "ĠSpa": 5025,
      "Ġex": 5026,
      "Ġváº¡ch": 5027,
      "ĠBÄĥng": 5028,
      "sinh": 5029,
      "CÄĥn": 5030,
      "ĠThÃ¡p": 5031,
      "td": 5032,
      "Ġnhá»Ł": 5033,
      "ĠÄĲan": 5034,
      "ĠTay": 5035,
      "ĠPan": 5036,
      "Com": 5037,
      "ĠTá»©c": 5038,
      "ĠkhÃ©p": 5039,
      "na": 5040,
      "araoke": 5041,
      "Ãºn": 5042,
      "ĠHÃłm": 5043,
      "win": 5044,
      "Ġtrá»«ng": 5045,
      "ĠSen": 5046,
      "icon": 5047,
      "work": 5048,
      "ise": 5049,
      "TiÃªu": 5050,
      "ÄĲÆ°á»Ŀng": 5051,
      "DÃ¢n": 5052,
      "ĠMax": 5053,
      "Ġchay": 5054,
      "ĠÄĳá»įng": 5055,
      "ĠNgÃ£i": 5056,
      "/.": 5057,
      "Posted": 5058,
      "ĠÄĳc": 5059,
      "ĠBÃ¡nh": 5060,
      "Ġ1000": 5061,
      "Ġhotline": 5062,
      "SN": 5063,
      "ĠrÃ¡p": 5064,
      "á»£t": 5065,
      "Ġbo": 5066,
      "ĠLáº§n": 5067,
      "ĠchiÃªm": 5068,
      "St": 5069,
      "uoc": 5070,
      "ĠvÃ¢y": 5071,
      "ĠThá»©c": 5072,
      "ĠkiÃªng": 5073,
      "ĠChÆ°a": 5074,
      "bum": 5075,
      "Ġkháº½": 5076,
      "Ġ65": 5077,
      "áº¾T": 5078,
      "ĠArsenal": 5079,
      "Ġ2007": 5080,
      "ĠsÃ©t": 5081,
      "Ġláº¥n": 5082,
      "Ġwww": 5083,
      "tainment": 5084,
      "Ġláº§u": 5085,
      "Ġsá»ıi": 5086,
      "Ġdá»ĳi": 5087,
      "Æ¯á»¢": 5088,
      "ĠÄĳáº¯ng": 5089,
      "Ġkhuy": 5090,
      "ĠPS": 5091,
      "cÃ¡c": 5092,
      "ĠkÃ©p": 5093,
      "Iáº¾T": 5094,
      "áº¢I": 5095,
      "ĠsÆ°á»Ŀn": 5096,
      "ĠBi": 5097,
      "888": 5098,
      "Cáº£m": 5099,
      "TÃłi": 5100,
      "ĠCá»Ŀ": 5101,
      "ĠVND": 5102,
      "âĢ¦\"": 5103,
      "ĠParis": 5104,
      "ĠKá»·": 5105,
      "Ġbet": 5106,
      "les": 5107,
      "ĠBÃ¡": 5108,
      "Æ¯á»ļ": 5109,
      "400": 5110,
      "ĠÆ¯u": 5111,
      "Cuá»ĳi": 5112,
      "ĠBang": 5113,
      "ĠiOS": 5114,
      "Ġlung": 5115,
      "ĠVill": 5116,
      "oth": 5117,
      "ĠThÃºy": 5118,
      "mer": 5119,
      "ĠtÃ²": 5120,
      "ĠlÆ°á»Ľt": 5121,
      "ĠSch": 5122,
      "63": 5123,
      "ĠRá»ĵi": 5124,
      "ĠView": 5125,
      "ĠBáº¡c": 5126,
      "Ġná»©t": 5127,
      "Ġdownload": 5128,
      "ĠNov": 5129,
      "aul": 5130,
      "ĠKhang": 5131,
      "ĠnhÃ¬": 5132,
      "chi": 5133,
      "za": 5134,
      "ĠCháº¿": 5135,
      "Ġkiá»ĩt": 5136,
      "ĠMod": 5137,
      "ĠASEAN": 5138,
      "Ġmáº¡": 5139,
      "onaldo": 5140,
      "Ġvaccine": 5141,
      "ĠSyria": 5142,
      "DÆ°á»Ľi": 5143,
      "ĠTrÃºc": 5144,
      "ĠchÃ¡nh": 5145,
      "ence": 5146,
      "ĠSÃ¡t": 5147,
      "ustral": 5148,
      "di": 5149,
      "QuÃ½": 5150,
      "Ġráº¡ng": 5151,
      "Ġnew": 5152,
      "Quáº£ng": 5153,
      "ĠMess": 5154,
      "Ġrá»ħ": 5155,
      "Ġsá»ī": 5156,
      "iga": 5157,
      "Bank": 5158,
      "HÃłng": 5159,
      "ĠhÃ¡i": 5160,
      "Ġxá»ĭt": 5161,
      "Ban": 5162,
      "ĠcÃłnh": 5163,
      "ĠShi": 5164,
      "ĠHáº¯n": 5165,
      "''": 5166,
      "ĠláºŃt": 5167,
      "Ġluá»ĵng": 5168,
      "Ġngá»Ļt": 5169,
      "Ġtá»ĩp": 5170,
      "QG": 5171,
      "ĠÄĳÃ²n": 5172,
      "Ġchá»£t": 5173,
      "SI": 5174,
      "ĠTáºłI": 5175,
      "ĠBen": 5176,
      "aigon": 5177,
      "Ġ49": 5178,
      "gmail": 5179,
      "NÃªn": 5180,
      "duc": 5181,
      "Ġnhang": 5182,
      "GD": 5183,
      "ena": 5184,
      "ĠbÃ³p": 5185,
      "phim": 5186,
      "ĠBÃ©": 5187,
      "ĠBÃŃch": 5188,
      "Æ¯á»ľNG": 5189,
      "xin": 5190,
      "Ġsc": 5191,
      "Thá»ĥ": 5192,
      "ĠEntertainment": 5193,
      "Ġhoáº¡i": 5194,
      "á»¥a": 5195,
      "ept": 5196,
      "Ġset": 5197,
      "ĠÄĳáº·n": 5198,
      "Ġmy": 5199,
      "ĠMiá»ħn": 5200,
      "Pad": 5201,
      "ĠgÃµ": 5202,
      "ĠTN": 5203,
      "ĠNAM": 5204,
      "ĠlÅ©y": 5205,
      "64": 5206,
      "ĠCu": 5207,
      "Ġgá»«ng": 5208,
      "sub": 5209,
      "ĠchÃª": 5210,
      "Ġfull": 5211,
      "ĠTre": 5212,
      "ĠcÃºp": 5213,
      "Vá»ĭ": 5214,
      "ĠSá»ĳng": 5215,
      "Báº¥t": 5216,
      "ĠbÃ¡ch": 5217,
      "ĠÄĲiá»ĥn": 5218,
      "Ġpr": 5219,
      "Ġcá»±": 5220,
      "phcm": 5221,
      "Ġ68": 5222,
      "ĠtrÃ¢u": 5223,
      "Tags": 5224,
      "ĠBÃ¡ch": 5225,
      "ĠCáºŃu": 5226,
      "Ġbáº¥y": 5227,
      "Link": 5228,
      "ĠPal": 5229,
      "ĠÄĲÃłn": 5230,
      "ĠKÃŃch": 5231,
      "Ġvá»ĭt": 5232,
      "ura": 5233,
      "ĠGiÃªsu": 5234,
      "ĠÄĳáº¡m": 5235,
      "ĠDiá»ĩu": 5236,
      "news": 5237,
      "ĠHP": 5238,
      "Ġkiáº¿p": 5239,
      "undai": 5240,
      "Ġxen": 5241,
      "Ġsuá»ĳi": 5242,
      "ĠkhÆ¡i": 5243,
      "ĠcÃºi": 5244,
      "ĠÄĲá»ķi": 5245,
      "ĠrÃ¡o": 5246,
      "Ġdiá»ĩu": 5247,
      "ĠthÆ°a": 5248,
      "Ġá»§": 5249,
      "Ġtest": 5250,
      "Ġcá»įc": 5251,
      "Máº¹": 5252,
      "ĠxÃ´i": 5253,
      "ÄĲi": 5254,
      "ĠNghi": 5255,
      "ĠngÆ°ng": 5256,
      "ĠdÃ£y": 5257,
      "ĠÄĲÃ´i": 5258,
      "Táº£i": 5259,
      "72": 5260,
      "van": 5261,
      "Ġnghiá»ĩn": 5262,
      "ĠHa": 5263,
      "ĠcÆ°ng": 5264,
      "Tá»·": 5265,
      "ĠTÆ°Æ¡ng": 5266,
      "ĠHiáº¿u": 5267,
      "á»Ńng": 5268,
      "Ġas": 5269,
      "ĠÑ": 5270,
      "ĠgÃ¡c": 5271,
      "ĠÄĳá»©t": 5272,
      "Ġmanh": 5273,
      "ĠMicrosoft": 5274,
      "ĠHong": 5275,
      "ision": 5276,
      "ÄĲá»«ng": 5277,
      "lÃłm": 5278,
      "ĠSP": 5279,
      "Ġngá»±": 5280,
      "ĠLink": 5281,
      "ife": 5282,
      "ĠÄĳÃłnh": 5283,
      "Ġphanh": 5284,
      "ĠKit": 5285,
      "ĠlÆ¡": 5286,
      "Ġ800": 5287,
      "Ġdáº¹p": 5288,
      "TháºŃt": 5289,
      "ĠLiá»ĩu": 5290,
      "ĠChá»£": 5291,
      "etro": 5292,
      "ĠâĨ": 5293,
      "TN": 5294,
      "arden": 5295,
      "ĠÄĳan": 5296,
      "Ġthun": 5297,
      "Phim": 5298,
      "ĠÄĲáº¯k": 5299,
      "ger": 5300,
      "ĠthÃ¡m": 5301,
      "Ġtráº¯c": 5302,
      "Ġ64": 5303,
      "RE": 5304,
      "ĠÄĳáº¯m": 5305,
      "Ġlui": 5306,
      "Ġkiá»ģm": 5307,
      "ĠMe": 5308,
      "ĠHá»ĮC": 5309,
      "ÃĻ": 5310,
      "Ġcanxi": 5311,
      "ĠBo": 5312,
      "ĠchuÃ´ng": 5313,
      "ody": 5314,
      "ĠLiÃªm": 5315,
      "ĠComp": 5316,
      "Ġdá»ĵn": 5317,
      "ĠPhÃŃ": 5318,
      "ĠvÃ²i": 5319,
      "ĠHuá»ĩ": 5320,
      "ĠÄĳáº¿m": 5321,
      "ĠPhá»¥c": 5322,
      "ream": 5323,
      "600": 5324,
      "ĠCrown": 5325,
      "ps": 5326,
      "Thuá»ĳc": 5327,
      "Ġngáº«u": 5328,
      "ĠSÃ´ng": 5329,
      "DF": 5330,
      "ĠSam": 5331,
      "ĠxÃ¬": 5332,
      "ĠHiá»ĥu": 5333,
      "ĠBÃ¢y": 5334,
      "Ġmá»īm": 5335,
      "ĠgÃłng": 5336,
      "ĠRed": 5337,
      "ĠKÃ½": 5338,
      "ĠTM": 5339,
      "my": 5340,
      "Ġspa": 5341,
      "Ġtá»¥ng": 5342,
      "ĠUkraine": 5343,
      "ical": 5344,
      "Ġá´": 5345,
      "âĸ": 5346,
      "ĠGiáº£m": 5347,
      "ĠAll": 5348,
      "ĠHÃ£ng": 5349,
      "ement": 5350,
      "ĠmÃºa": 5351,
      "ĠngÃ´": 5352,
      "ĠQuÃ¡": 5353,
      "Ġled": 5354,
      "OL": 5355,
      "ĠÄĲÃºng": 5356,
      "ĠMáº¡c": 5357,
      "ustralia": 5358,
      "ĠGen": 5359,
      "ĠCai": 5360,
      "Ġdá»Ł": 5361,
      "ĠLand": 5362,
      "Ġkhá»ĳng": 5363,
      "igh": 5364,
      "play": 5365,
      "ĠtÆ°á»Ľi": 5366,
      "BA": 5367,
      "Ġbá»įt": 5368,
      "ĠMang": 5369,
      "ĠLá»±c": 5370,
      "ĠmuÃ´n": 5371,
      "onald": 5372,
      "ĠtrÃ¡n": 5373,
      "witter": 5374,
      "Ġdom": 5375,
      "ĠdÅ©ng": 5376,
      "ĠxÃ¡": 5377,
      "Ġbuá»ĵng": 5378,
      "ĠÄĳá»Ľi": 5379,
      "____": 5380,
      "ĠTruyá»ĩn": 5381,
      "ĠMÃ³n": 5382,
      "ĠHan": 5383,
      "Ġgáº¯t": 5384,
      "ĠChá»©c": 5385,
      "ĠMC": 5386,
      "inho": 5387,
      "ĠOne": 5388,
      "ĠChia": 5389,
      "ĠTY": 5390,
      "Ġvá»Ł": 5391,
      "ĠgÃ£y": 5392,
      "ĠÄĳiá»ģm": 5393,
      "ĠTráº¯ng": 5394,
      "ĠGam": 5395,
      "Ġ{": 5396,
      "ĠrÃ¨m": 5397,
      "PN": 5398,
      "pt": 5399,
      "Ġus": 5400,
      "ĠÄĳÃŃnh": 5401,
      "ĠNhÄ©": 5402,
      "ater": 5403,
      "aha": 5404,
      "ĠTHU": 5405,
      "ĠZh": 5406,
      "Website": 5407,
      "Sao": 5408,
      "Ġview": 5409,
      "ÃĤY": 5410,
      "ĠcÃło": 5411,
      "chester": 5412,
      "800": 5413,
      "SD": 5414,
      "ĠÄĳÃª": 5415,
      "ban": 5416,
      "ĠTáº¡p": 5417,
      "ĠPháº©m": 5418,
      "ÃģY": 5419,
      "ĠIII": 5420,
      "Ġreview": 5421,
      "Ġdáº·m": 5422,
      "!!!": 5423,
      "tá»«": 5424,
      "Ġdá»Ļi": 5425,
      "earch": 5426,
      "ĠKháº£": 5427,
      "Ai": 5428,
      "ĠChiá»ģu": 5429,
      "bi": 5430,
      "Ġtrinh": 5431,
      "Ð°": 5432,
      "Ľt": 5433,
      "ĠJo": 5434,
      "ĠSÃ¢n": 5435,
      "room": 5436,
      "unt": 5437,
      "TA": 5438,
      "ĠNhÃ³m": 5439,
      "ĠGS": 5440,
      "Ġï": 5441,
      "VÃŃ": 5442,
      "Ġtáº¡": 5443,
      "73": 5444,
      "Ġnáº¿n": 5445,
      "................": 5446,
      "Ġbai": 5447,
      "HoÃłng": 5448,
      "ĠâĢĶ": 5449,
      "ĠIran": 5450,
      "Ġ42": 5451,
      "ĠJun": 5452,
      "Ġeo": 5453,
      "Ġtriáº¿t": 5454,
      "HD": 5455,
      "ĠSÃ³c": 5456,
      "inch": 5457,
      "ĠViá»ħn": 5458,
      "Thay": 5459,
      "osh": 5460,
      "Láº¯p": 5461,
      "ĠVá»ĩ": 5462,
      "lin": 5463,
      "Ġruá»Ļng": 5464,
      "afe": 5465,
      "Ġlen": 5466,
      "ĠTráº¡ch": 5467,
      "Tiá»ĥu": 5468,
      "á»£p": 5469,
      "'.": 5470,
      "BÃ¡c": 5471,
      "ĠGames": 5472,
      "Ġgu": 5473,
      "ĠBÃģ": 5474,
      "ĠHoÃł": 5475,
      "aka": 5476,
      "ĠPremier": 5477,
      "ĠhoÃłnh": 5478,
      "ĠDownload": 5479,
      "Hotline": 5480,
      "Ġviá»ģn": 5481,
      "ĠNS": 5482,
      "Diá»ħn": 5483,
      "á»Ķ": 5484,
      "ĠHang": 5485,
      "ĠVn": 5486,
      "ĠWifi": 5487,
      "ĠtrÃ¹m": 5488,
      "Lá»Ŀi": 5489,
      "Ġtui": 5490,
      "ĠVIá»ĨT": 5491,
      "date": 5492,
      "Ġnhá»Ŀn": 5493,
      "62": 5494,
      "ĠSU": 5495,
      "ĠHome": 5496,
      "ĠmÃ¢u": 5497,
      "ĠHotel": 5498,
      "Ġrá»ķ": 5499,
      "ĠDáº«n": 5500,
      "Há»Ĺ": 5501,
      "ĠbÃ£": 5502,
      "ÄĤN": 5503,
      "ÄĲá»ģ": 5504,
      "CÃ¢y": 5505,
      "Ġthuá»·": 5506,
      "otte": 5507,
      "95": 5508,
      "Ġcá»Łi": 5509,
      "84": 5510,
      "oáº¡n": 5511,
      "Ġvá»Ĺ": 5512,
      "Ġdáº£i": 5513,
      "ÃįNH": 5514,
      "ĠÃło": 5515,
      "ĠNgÅ©": 5516,
      "ĠNÃłng": 5517,
      "ĠPhÃ¹": 5518,
      "ĠÄĳá»¥c": 5519,
      "ĠvÃ´i": 5520,
      "ĠngÃ¢y": 5521,
      "Ġláº©u": 5522,
      "ĠSim": 5523,
      "ĠKÃŃnh": 5524,
      "Ġkhoang": 5525,
      "Ġgá»Ļi": 5526,
      "ĠtÃ³m": 5527,
      "ors": 5528,
      "Ġbáº¿": 5529,
      "Ġcáº¡n": 5530,
      "ĠmÃ¢m": 5531,
      "ĠXiao": 5532,
      "ĠThÃ¬": 5533,
      "á»Ľn": 5534,
      "ĠrÃ¢u": 5535,
      "eed": 5536,
      "ĠLee": 5537,
      "ĠVinhomes": 5538,
      "Ġtrá»ħ": 5539,
      "ĠChiáº¿c": 5540,
      "ĠResort": 5541,
      "Phá»¥": 5542,
      "Thá»ĭ": 5543,
      "ĠbÃºn": 5544,
      "Ġdáº·n": 5545,
      "ĠMÃ´": 5546,
      "ĠKing": 5547,
      ">>>": 5548,
      "ĠsÃºc": 5549,
      "Ġcháº·ng": 5550,
      "ĠCMND": 5551,
      "ĠÄĳiÃªu": 5552,
      "Ġdá»ĩt": 5553,
      "ĠQuá»¹": 5554,
      "Ġmuá»Ĺng": 5555,
      "ĠHá»ıa": 5556,
      "Giá»Ŀ": 5557,
      "ÄĤNG": 5558,
      "Video": 5559,
      "book": 5560,
      "ĠthiÃªng": 5561,
      ".[": 5562,
      "Ġ}": 5563,
      "Ġve": 5564,
      "national": 5565,
      "ĠtÆ¡": 5566,
      "KT": 5567,
      "ĠTrÃ¬": 5568,
      "2009": 5569,
      "ĠTIN": 5570,
      "Ġthá»īnh": 5571,
      "erry": 5572,
      "ooth": 5573,
      "ĠLÃĢ": 5574,
      "ĠDis": 5575,
      "ĠChuyá»ĥn": 5576,
      "ĠStar": 5577,
      "¯a": 5578,
      "ĠbÃłng": 5579,
      "ĠBin": 5580,
      "áº¦U": 5581,
      "ĠSÆ¡": 5582,
      "Ġrá»ĩt": 5583,
      "ĠNghe": 5584,
      "ĠTok": 5585,
      "ÄĲÃºng": 5586,
      "á»®": 5587,
      "ĠDÃ²ng": 5588,
      "ual": 5589,
      "Phong": 5590,
      "ĠDáº¡": 5591,
      "pa": 5592,
      "ĠMá»©c": 5593,
      "ĠChuyá»ĩn": 5594,
      "ney": 5595,
      "Ġcháº£o": 5596,
      "Ġkhiáº¿t": 5597,
      "ĠAustralia": 5598,
      "ĠnÃ³n": 5599,
      "aly": 5600,
      "MÃ¹a": 5601,
      "Ġquáº§y": 5602,
      "xem": 5603,
      "Ð¾": 5604,
      "Láº§n": 5605,
      "ĠchÃ¬a": 5606,
      "86": 5607,
      "ĠBÃ¡t": 5608,
      "DC": 5609,
      "YT": 5610,
      "Ġdá»Ĺ": 5611,
      "ĠCÆ°Æ¡ng": 5612,
      "oss": 5613,
      "ko": 5614,
      "Loáº¡i": 5615,
      "ĠhÃŃt": 5616,
      "ĠComment": 5617,
      "Ġ43": 5618,
      "ĠSky": 5619,
      "olog": 5620,
      "ĠRonaldo": 5621,
      "ĠSá»¯a": 5622,
      "74": 5623,
      "dro": 5624,
      "Ġhá»ĳ": 5625,
      "ĠIm": 5626,
      "ĠVan": 5627,
      "Ġacid": 5628,
      "Ġrang": 5629,
      "========": 5630,
      "ĠRáº»": 5631,
      "Ġhack": 5632,
      "Ġvá»©": 5633,
      "ĠLH": 5634,
      "áº¥ng": 5635,
      "cc": 5636,
      "ins": 5637,
      "ĠquÃ£ng": 5638,
      "ĠAN": 5639,
      "ĠBáº¯n": 5640,
      "Ná»¯": 5641,
      "Ġthiá»ģn": 5642,
      "ĠBá»ĳ": 5643,
      "Ġsá»Ŀ": 5644,
      "ĠAb": 5645,
      "á»ĲC": 5646,
      "DÃ¹ng": 5647,
      ".âĢĿ": 5648,
      "ĠBHXH": 5649,
      "Ġráº½": 5650,
      "Ġ360": 5651,
      "biz": 5652,
      "ĠmáºŃp": 5653,
      "ĠTá»©": 5654,
      "ĠCÄĲ": 5655,
      "Ġ..": 5656,
      "ĠRiÃªng": 5657,
      "ĠJu": 5658,
      "dong": 5659,
      "Ġlá»¥a": 5660,
      "Ġnhá»ĭn": 5661,
      "ĠTá»ĳng": 5662,
      "Hy": 5663,
      "Ġcau": 5664,
      "ĠSol": 5665,
      "amil": 5666,
      "Ġxoáº¯n": 5667,
      "Ġkáº¹o": 5668,
      "ĠLuÃ¢n": 5669,
      "ition": 5670,
      "ele": 5671,
      "ĠnÃ´": 5672,
      "ĠBS": 5673,
      "Ġauthor": 5674,
      "ĠChuáº©n": 5675,
      "Ġcáº¥y": 5676,
      "ĠLáº¡i": 5677,
      "ĠDO": 5678,
      "ĠhÆ°á»Ľc": 5679,
      "ĠKhá»Łi": 5680,
      "ĠTÃ¡m": 5681,
      "celona": 5682,
      "Ráº¥t": 5683,
      "ĠSoi": 5684,
      "Ġlog": 5685,
      "ĠÃ¡": 5686,
      "ĠVá»«a": 5687,
      "earl": 5688,
      "IP": 5689,
      "lines": 5690,
      "ĠcÃµi": 5691,
      "GiÃ¡o": 5692,
      "ĠLá»Ľp": 5693,
      "ĠEr": 5694,
      "Ġor": 5695,
      "UB": 5696,
      "ont": 5697,
      "ĠNgá»¯": 5698,
      "ae": 5699,
      "Ġdomain": 5700,
      "king": 5701,
      "LO": 5702,
      "ĠÄĲá»ĺ": 5703,
      "Ġlanh": 5704,
      "aki": 5705,
      "PhÃ³": 5706,
      "ĠSuper": 5707,
      "ĠKháº¯c": 5708,
      "ĠVitamin": 5709,
      ",..": 5710,
      "Ġgáº¡t": 5711,
      "Ġtá»ĵi": 5712,
      "ĠÄĳu": 5713,
      "ĠLang": 5714,
      "ouch": 5715,
      "uat": 5716,
      "ĠKhÃŃ": 5717,
      "BÃŃ": 5718,
      "ĠBlu": 5719,
      "ford": 5720,
      "lá»Ĺi": 5721,
      "Ġlá»į": 5722,
      "ĠOb": 5723,
      "Iá»ĨU": 5724,
      "ĠGo": 5725,
      "Ġvuá»ĳt": 5726,
      "Ġá»ĳm": 5727,
      "QT": 5728,
      "outh": 5729,
      "MB": 5730,
      "Ġare": 5731,
      "ĠGiÃ¡ng": 5732,
      "71": 5733,
      "oud": 5734,
      "ĠRom": 5735,
      "gen": 5736,
      "Ġthis": 5737,
      "ĠxÃ³t": 5738,
      "ĠBiáº¿t": 5739,
      "Ġnhung": 5740,
      "Ġnáº§y": 5741,
      "ChÃło": 5742,
      "Ġtáº£n": 5743,
      "li": 5744,
      "ĠGáº§n": 5745,
      "Ġ700": 5746,
      "Ġgá»ĳm": 5747,
      "ThÆ°Æ¡ng": 5748,
      "Má»¥c": 5749,
      "Tu": 5750,
      "lic": 5751,
      "ef": 5752,
      "any": 5753,
      "ĠHoáº¡t": 5754,
      "Ġcáº©m": 5755,
      "Ġnhuyá»ħn": 5756,
      "ĠPhiÃªn": 5757,
      "fo": 5758,
      "Ġqui": 5759,
      "Ġxao": 5760,
      "KS": 5761,
      "ĠCHO": 5762,
      "ĠvÆ°á»£ng": 5763,
      "entina": 5764,
      "ĠÄĲá»Ŀi": 5765,
      "uto": 5766,
      "po": 5767,
      "tim": 5768,
      "istan": 5769,
      "ĠbÃ³c": 5770,
      "word": 5771,
      "Ġnháº·t": 5772,
      "ĠSony": 5773,
      "ĠrÃ©t": 5774,
      "Ġcollagen": 5775,
      "ĠPHÃģ": 5776,
      "Ġmobile": 5777,
      "err": 5778,
      "ĠCap": 5779,
      "Ġngáº·t": 5780,
      "ĠXS": 5781,
      "ĠÄĳáº¡c": 5782,
      "NÄĲ": 5783,
      "hoáº·c": 5784,
      "ĠhoÃ£n": 5785,
      "Ġwin": 5786,
      "TB": 5787,
      "iep": 5788,
      "olor": 5789,
      "ĠTiáº¿t": 5790,
      "Ġháº¡ch": 5791,
      "Ex": 5792,
      "ĠYo": 5793,
      "cÃ´ng": 5794,
      "Ġ52": 5795,
      "á»Ľc": 5796,
      "ĠxÆ°ng": 5797,
      "III": 5798,
      "ĠDH": 5799,
      "Ġpm": 5800,
      "ĠThoáº¡i": 5801,
      "ĠGarden": 5802,
      "KÃŃch": 5803,
      "ĠchÃ©m": 5804,
      "Ġá»Ĳ": 5805,
      "Ġclick": 5806,
      "ThÃªm": 5807,
      "row": 5808,
      "ÄĤn": 5809,
      "Ġkaraoke": 5810,
      "oney": 5811,
      "Ġap": 5812,
      "ĠMV": 5813,
      "Ġun": 5814,
      "vi": 5815,
      "Ġ2023": 5816,
      "ĠmÃ£nh": 5817,
      "ĠÄĳinh": 5818,
      "ĠLi": 5819,
      "Ġli": 5820,
      "Ġ2006": 5821,
      "UBND": 5822,
      "lish": 5823,
      "Ġkáº¹p": 5824,
      "ĠEmail": 5825,
      "hay": 5826,
      "ĠThÃ¹y": 5827,
      "ĠGreen": 5828,
      "Ã¬a": 5829,
      "Ġbáº¡t": 5830,
      "Ġnhuá»Ļm": 5831,
      "der": 5832,
      "ĠWal": 5833,
      "ĠTranh": 5834,
      "Pl": 5835,
      "ĠVui": 5836,
      "Ġchá»įc": 5837,
      "ĠNá»ģn": 5838,
      "ĠGl": 5839,
      "ĠGÃ²": 5840,
      "me": 5841,
      "ĠvÃłnh": 5842,
      "ĠhÆ°ng": 5843,
      "Ġvoi": 5844,
      "Ġauthority": 5845,
      "ĠTriá»ĥn": 5846,
      "ĠTrÆ°ng": 5847,
      "Ġáº¢": 5848,
      "Ġnhá»Ļn": 5849,
      "Ġfl": 5850,
      "Ġ;": 5851,
      "ster": 5852,
      "ĠTrÄĥng": 5853,
      "Ġluá»Ļc": 5854,
      "ĠTHCS": 5855,
      "Ġá»§i": 5856,
      "ĠBig": 5857,
      "ĠDel": 5858,
      "ÄĲáº·t": 5859,
      "Ġmuá»Ļi": 5860,
      "ĠAirlines": 5861,
      "Ġgolf": 5862,
      "ĠFord": 5863,
      "Ġgay": 5864,
      "Ġ46": 5865,
      "Giao": 5866,
      "ĠLÃªn": 5867,
      "ĠbÃ¹n": 5868,
      "ToÃłn": 5869,
      "ĠtÃł": 5870,
      "ĠTour": 5871,
      "ĠJack": 5872,
      "ĠdÃło": 5873,
      "ĠInst": 5874,
      "ĠLiÃªu": 5875,
      "Ġkáº¹t": 5876,
      "try": 5877,
      "ÃģCH": 5878,
      "Há»į": 5879,
      "urn": 5880,
      "ĠAI": 5881,
      "Bá»Łi": 5882,
      "ega": 5883,
      "Gh": 5884,
      "Ġ41": 5885,
      "ĠMc": 5886,
      "ĠLá»Ļ": 5887,
      "ĠMuá»ĳn": 5888,
      "Ġ44": 5889,
      "khÃ´": 5890,
      "TÄĥng": 5891,
      "ham": 5892,
      "ĠTech": 5893,
      "ĠDav": 5894,
      "--------": 5895,
      "ats": 5896,
      "ĠLÃ£o": 5897,
      "Ġkhiáº¿p": 5898,
      "ĠChÃº": 5899,
      "ĠManchester": 5900,
      "over": 5901,
      "ĠâĢĺ": 5902,
      "ĠSang": 5903,
      "Ġtaxi": 5904,
      "ThiÃªn": 5905,
      "85": 5906,
      "FC": 5907,
      "yn": 5908,
      "Ġsize": 5909,
      "eon": 5910,
      "ĠÄĲá»ĳng": 5911,
      "ĠiPad": 5912,
      "Ġnan": 5913,
      "ĠtÃº": 5914,
      "ĠAv": 5915,
      "ush": 5916,
      "ove": 5917,
      "ĠBV": 5918,
      "ator": 5919,
      "Ġ85": 5920,
      "ĠHyundai": 5921,
      "etooth": 5922,
      "Ġmon": 5923,
      "tro": 5924,
      "ĠNhiÃªn": 5925,
      "DS": 5926,
      "ĠphÃ´": 5927,
      "ĠGiai": 5928,
      "Cá»Ńa": 5929,
      "ÃĹ": 5930,
      "ĠNháºŃp": 5931,
      "combank": 5932,
      "ĠMart": 5933,
      "ĠMob": 5934,
      "Ġráº¡p": 5935,
      "ĠSport": 5936,
      "ĠSil": 5937,
      "ĠRá»ĭa": 5938,
      "365": 5939,
      "ĠthÃª": 5940,
      "./.": 5941,
      "ĠÄĳÃ¹i": 5942,
      "Ġsá»¥t": 5943,
      "ĠInternational": 5944,
      "ĠNHÃĢ": 5945,
      "Äĳá»įc": 5946,
      "omo": 5947,
      "Chuyá»ĩn": 5948,
      "Ġ95": 5949,
      "ĠâĨĴ": 5950,
      "game": 5951,
      "Ġsáº£nh": 5952,
      "Ġváº·n": 5953,
      "700": 5954,
      "Ad": 5955,
      "Ġchá»ĳn": 5956,
      "ĠcháºŃt": 5957,
      "ĠÄĳuá»ĳi": 5958,
      "Hz": 5959,
      "Ġngáº¯t": 5960,
      "ĠKiá»ĩt": 5961,
      "Tá»ķ": 5962,
      "auty": 5963,
      "Ġadmin": 5964,
      "ĠTá»ĳi": 5965,
      "tv": 5966,
      "ĠRá»ĵng": 5967,
      "...\"": 5968,
      "BÃłn": 5969,
      "Ġhiáº¿p": 5970,
      "ĠxuÃ´i": 5971,
      "ĠÄĲá»ı": 5972,
      "ĠNhung": 5973,
      "xe": 5974,
      "Ġgas": 5975,
      "ĠNhanh": 5976,
      "ĠVÄĲ": 5977,
      "ĠKy": 5978,
      "ĠDan": 5979,
      "NÃ³": 5980,
      "ĠphÃ¬": 5981,
      "ÃĢY": 5982,
      "ĠxÃŃ": 5983,
      "ĠRa": 5984,
      "Ġkhuáº¥t": 5985,
      "TVT": 5986,
      "ĠNgÃ´i": 5987,
      "link": 5988,
      "ĠtÃºng": 5989,
      "ING": 5990,
      "ott": 5991,
      "ĠMP": 5992,
      "ava": 5993,
      "ondon": 5994,
      "xx": 5995,
      "ĠTráº£": 5996,
      "Ġgen": 5997,
      "ĠWar": 5998,
      "á»ĬCH": 5999,
      "ĠVy": 6000,
      "Ġlá»Ł": 6001,
      "ters": 6002,
      "ÃģC": 6003,
      "ĠGiÃ¡p": 6004,
      "Ġthon": 6005,
      "Ġxáº£o": 6006,
      "ĠAngel": 6007,
      "Ġwh": 6008,
      "ixel": 6009,
      "ĠCT": 6010,
      "ĠNhÃ£": 6011,
      "Sinh": 6012,
      "Ġthat": 6013,
      "sk": 6014,
      "Ġkhao": 6015,
      "ÃĢNH": 6016,
      "Ġnguá»Ļi": 6017,
      "ĠCB": 6018,
      "ĠXÃ´": 6019,
      "Ġyour": 6020,
      "sa": 6021,
      "2008": 6022,
      "Ġpháº§m": 6023,
      "ĠTuáº§n": 6024,
      "Ġteam": 6025,
      "Ġnuá»ĳt": 6026,
      "ĠPer": 6027,
      "ĠKÃ´ng": 6028,
      "ips": 6029,
      "Cáº£": 6030,
      "ĠxÃŃu": 6031,
      "avel": 6032,
      "\":": 6033,
      "Ð½": 6034,
      "¿½": 6035,
      "ĠTáº§ng": 6036,
      "ĠTÃŃch": 6037,
      "ĠPower": 6038,
      "Ġlá»Ļt": 6039,
      "Nghe": 6040,
      "ĠSaigon": 6041,
      "uki": 6042,
      "ĠDes": 6043,
      "Ġkáº½m": 6044,
      "ĠSmart": 6045,
      "Ġchá»Ńi": 6046,
      "ja": 6047,
      "ĠVTV": 6048,
      "ett": 6049,
      "ĠÄĳÃ¨": 6050,
      "ĠPost": 6051,
      "Ġbl": 6052,
      "ĠTÆ°á»Ľng": 6053,
      "ĠMessi": 6054,
      "Náº±m": 6055,
      "Ġxáº¯n": 6056,
      "Ġvá»ī": 6057,
      "ĠKhÃ¡m": 6058,
      "ĠTá»ĳ": 6059,
      "ĠChÄĥm": 6060,
      "ny": 6061,
      "ishi": 6062,
      "ĠSáº½": 6063,
      "Ar": 6064,
      "evel": 6065,
      "ĠsÃ¡p": 6066,
      "ĠDV": 6067,
      "bal": 6068,
      "ser": 6069,
      "Ġmá»ĵi": 6070,
      "ĠUV": 6071,
      "ĠÆ°á»Ľp": 6072,
      "ĠbÄĥm": 6073,
      "ĠMag": 6074,
      "Ġgom": 6075,
      "Ġ51": 6076,
      "ĠxÆ°á»Ľc": 6077,
      "Ðµ": 6078,
      "ami": 6079,
      "ĠPhÃ¹ng": 6080,
      "Ġxá»ĳp": 6081,
      "ĠBarcelona": 6082,
      "áº»m": 6083,
      "ĠbuÃ½t": 6084,
      "Ġcháº±m": 6085,
      "Ġvá»©t": 6086,
      "Ġnhá»¥c": 6087,
      "Ġ900": 6088,
      "Ġsáº§u": 6089,
      "Ġngáº§n": 6090,
      "Facebook": 6091,
      "ĠVÃ²ng": 6092,
      "tech": 6093,
      "ĠchÃ©o": 6094,
      "cr": 6095,
      "á»ĺI": 6096,
      "Ġmuá»Ĺi": 6097,
      "CL": 6098,
      "Ġnhá»įn": 6099,
      "Ġsá»¥p": 6100,
      "Ġrong": 6101,
      "Ġ110": 6102,
      "Tráº§n": 6103,
      "á»¨ng": 6104,
      "ĠLáº¯p": 6105,
      "uck": 6106,
      "61": 6107,
      "ĠWest": 6108,
      "ĠxÃ´": 6109,
      "ĠchÃł": 6110,
      "bur": 6111,
      "nham": 6112,
      "Ġcheck": 6113,
      "Ġbá»Ļc": 6114,
      "Ġsal": 6115,
      "Ġná»į": 6116,
      "ĠNgÃ´n": 6117,
      "ĠkiÃªm": 6118,
      "ĠchÆ°": 6119,
      "ĠdÃ¬": 6120,
      "tai": 6121,
      "MÃ´": 6122,
      "Ġpost": 6123,
      "DA": 6124,
      "Ġváº¯t": 6125,
      "ashing": 6126,
      "Ġgá»ī": 6127,
      "ĠLáº¥y": 6128,
      "GP": 6129,
      "bl": 6130,
      "Ġnghiá»ĩt": 6131,
      "Tiá»ģn": 6132,
      "Ġbá»ĵ": 6133,
      "Vá»«a": 6134,
      "ĠlÃ¡nh": 6135,
      "ĠAC": 6136,
      "Ġ2005": 6137,
      "900": 6138,
      "pro": 6139,
      "ĠÄĳá»ĳng": 6140,
      "ago": 6141,
      "Ġ58": 6142,
      "get": 6143,
      "nhÆ°": 6144,
      "ĠBÃ¡i": 6145,
      "ĠEver": 6146,
      "ĠUyÃªn": 6147,
      "ĠNhiá»ĩt": 6148,
      "Ġ_": 6149,
      "ĠcÃ³c": 6150,
      "ĠKHÃĶNG": 6151,
      "Æ°Æ¡m": 6152,
      "Cung": 6153,
      "ction": 6154,
      "ĠQuay": 6155,
      "ĠrÃ¡ch": 6156,
      "ĠKhÃª": 6157,
      "Ġ98": 6158,
      "ĠKem": 6159,
      "Ġlá»ĳp": 6160,
      "edes": 6161,
      "áºłN": 6162,
      "azon": 6163,
      "Ġphe": 6164,
      "Tháº£o": 6165,
      "ru": 6166,
      "Ġbá»«ng": 6167,
      "ĠOm": 6168,
      "ĠtÄĥm": 6169,
      "ĠBid": 6170,
      "ea": 6171,
      "Ġcháº£i": 6172,
      "áº¬P": 6173,
      "Ġform": 6174,
      "ult": 6175,
      "AA": 6176,
      "Ġrá»ĥ": 6177,
      "air": 6178,
      "ĠWe": 6179,
      "Ġdá»Ŀi": 6180,
      "ĠÄĳÃ£ng": 6181,
      "day": 6182,
      "ony": 6183,
      "Ġ47": 6184,
      "ever": 6185,
      "ĠLG": 6186,
      "ĠloÃ£ng": 6187,
      "Ġcomp": 6188,
      "ĠMich": 6189,
      "ĠTruy": 6190,
      "Ġ~": 6191,
      "ĠLondon": 6192,
      "DI": 6193,
      "199": 6194,
      "Ġvá»£t": 6195,
      "Ãµm": 6196,
      "ĠNay": 6197,
      "Ġlaser": 6198,
      "%)": 6199,
      "ThÃ¡i": 6200,
      "theo": 6201,
      "Ġmore": 6202,
      "ĠKhoáº£ng": 6203,
      "nhá»¯ng": 6204,
      "CÃ¡": 6205,
      "UYÃĬN": 6206,
      "Ġlá»Ļi": 6207,
      "ĠLá»": 6208,
      "Ġcalo": 6209,
      "MÃłu": 6210,
      "lÃł": 6211,
      "ĠBáº¯t": 6212,
      "ĠbÃ¡u": 6213,
      "ĠHÃĢNG": 6214,
      "omb": 6215,
      "ateg": 6216,
      "9853": 6217,
      "ĠnhÆ°á»Ŀng": 6218,
      "thu": 6219,
      "Ġngoáº¡n": 6220,
      "Háº¯n": 6221,
      "Lá»ĭch": 6222,
      "ashington": 6223,
      "ĠKong": 6224,
      "ĠNgÃłnh": 6225,
      "ora": 6226,
      "ĠláºŃn": 6227,
      "ĠTuyáº¿n": 6228,
      "ĠÄĲen": 6229,
      "Å©a": 6230,
      "Ġgo": 6231,
      "ĠdÃ©p": 6232,
      "Ġalbum": 6233,
      "Tá»Ń": 6234,
      "ĠViÃªm": 6235,
      "Tá»īnh": 6236,
      "ĠKháº£i": 6237,
      "UR": 6238,
      "ĠbÆ°á»Ľ": 6239,
      "zh": 6240,
      "ĠThÆ°á»Łng": 6241,
      "ĠHN": 6242,
      "ĠgiÃłn": 6243,
      "HÃłnh": 6244,
      "ĠlÆ°á»Ŀi": 6245,
      "Ġ69": 6246,
      "itan": 6247,
      "tainer": 6248,
      "Ġgel": 6249,
      "ĠÃ´tÃ´": 6250,
      "Vá»¥": 6251,
      "wei": 6252,
      "ĠChÃ¹a": 6253,
      "khi": 6254,
      "ates": 6255,
      "ĠHá»ĺ": 6256,
      "vip": 6257,
      "Ġlike": 6258,
      "itr": 6259,
      "ĠSw": 6260,
      "ĠMilan": 6261,
      "ble": 6262,
      "Ð¸": 6263,
      "ĠMong": 6264,
      "áº¢O": 6265,
      "Ġtruc": 6266,
      "ĠTuyá»ĥn": 6267,
      "ELTS": 6268,
      "oid": 6269,
      "ĠÄĲáº£m": 6270,
      "Ġ180": 6271,
      "HT": 6272,
      "Ġop": 6273,
      "Kiá»ĥm": 6274,
      "ward": 6275,
      "ĠXÃ¡c": 6276,
      "Chiáº¿c": 6277,
      "ĠcÃºc": 6278,
      "itt": 6279,
      "OT": 6280,
      "ĠRoy": 6281,
      "rev": 6282,
      "ĠArg": 6283,
      "Ġ59": 6284,
      "iger": 6285,
      "ĠRAM": 6286,
      "agram": 6287,
      "lam": 6288,
      "ĠhÃ©t": 6289,
      "ĠnhÃ¡y": 6290,
      "ĠBÃ£i": 6291,
      "Ġeuro": 6292,
      "Ġliá»ħu": 6293,
      "Ġoan": 6294,
      "Quan": 6295,
      "ĠnÃªm": 6296,
      "CoV": 6297,
      "ĠÄĳao": 6298,
      "form": 6299,
      "ĠhÃ´ng": 6300,
      "ĠTri": 6301,
      "Ġ56": 6302,
      "ï¿½": 6303,
      "ĠBer": 6304,
      "Ġká»µ": 6305,
      "ĠJi": 6306,
      ".-": 6307,
      "ĠTown": 6308,
      "Ġquáº¥n": 6309,
      "á»°C": 6310,
      "ĠBet": 6311,
      "ated": 6312,
      "res": 6313,
      "san": 6314,
      "Ġdong": 6315,
      "ĠUp": 6316,
      "ĠMáº¡ch": 6317,
      "Ġniá»ĩu": 6318,
      "ĠEng": 6319,
      "otor": 6320,
      "ĠbÃºa": 6321,
      "ĠnhÃŃ": 6322,
      "ĠSá»Ńa": 6323,
      "Ñĥ": 6324,
      "Ġchá»Ľp": 6325,
      "Ġvá»±ng": 6326,
      "ĠbÃ©n": 6327,
      "lor": 6328,
      "ĠVu": 6329,
      "ĠÄĲÃłm": 6330,
      ")-": 6331,
      "].": 6332,
      "ĠtÆ°á»Ľc": 6333,
      "ĠUl": 6334,
      "Ġghen": 6335,
      "ĠÄĳáºŃy": 6336,
      "Ġbáº©m": 6337,
      "hai": 6338,
      "ĠÄĲá»Ļc": 6339,
      "ĠAg": 6340,
      "uoi": 6341,
      "Ġdang": 6342,
      "ĠLÃ´": 6343,
      "á»ĲNG": 6344,
      "Ġcá»«": 6345,
      "ĠMáºŃt": 6346,
      "ĠDonald": 6347,
      "XÃ¢y": 6348,
      "anpage": 6349,
      "bin": 6350,
      "Ġhe": 6351,
      "ĠBro": 6352,
      "ĠPet": 6353,
      "ĠTho": 6354,
      "ventus": 6355,
      "ĠloÃ©t": 6356,
      "Ġruá»ĵi": 6357,
      "ĠSA": 6358,
      "Ġiphone": 6359,
      "thanh": 6360,
      "apa": 6361,
      "Ġ54": 6362,
      "Ġtphcm": 6363,
      "ĠMu": 6364,
      "ĠvÃ£": 6365,
      "ĦN": 6366,
      "PhÃ¡p": 6367,
      "ĠmiÃªu": 6368,
      "ĠBiá»ĩt": 6369,
      "Ġnot": 6370,
      "ĠBai": 6371,
      "ĠDáº§n": 6372,
      "Ġcard": 6373,
      "ĠATM": 6374,
      "rael": 6375,
      "Gáº§n": 6376,
      "ĠTháº¥y": 6377,
      "á»¬": 6378,
      "Ġkiá»ģu": 6379,
      "ĠgiÃ²": 6380,
      "Fi": 6381,
      "ĠTáº¡": 6382,
      "ĠGar": 6383,
      "%/": 6384,
      "ĠGÃł": 6385,
      "ChÆ°a": 6386,
      "ĠoÃ¡n": 6387,
      "ĠKr": 6388,
      "ÄĲá»Ļ": 6389,
      "ious": 6390,
      "ga": 6391,
      "ĠHam": 6392,
      "ĠDS": 6393,
      "ercedes": 6394,
      "ball": 6395,
      "house": 6396,
      "Doanh": 6397,
      "ĠNote": 6398,
      "ĠGolden": 6399,
      "ĠMÃłn": 6400,
      "ĠDuyÃªn": 6401,
      "Chiáº¿n": 6402,
      "Ġstress": 6403,
      "ĠrÃ²ng": 6404,
      "ÃĬU": 6405,
      "ĠOlympic": 6406,
      "ĠWashington": 6407,
      "ĠÄĳoan": 6408,
      "App": 6409,
      "esterol": 6410,
      "Ġláº·n": 6411,
      "ĠkhiÃªm": 6412,
      "Ġ63": 6413,
      "ĠXá»ķ": 6414,
      "eme": 6415,
      "ĠLo": 6416,
      "ĠTwitter": 6417,
      "ĠHiáº¿n": 6418,
      "Ġxoang": 6419,
      "ÄĲÆ¡n": 6420,
      "ĠJe": 6421,
      "gg": 6422,
      "Ġ@": 6423,
      "rm": 6424,
      "ĠchÃ¹m": 6425,
      "Ġdá»¡": 6426,
      "By": 6427,
      "ĠAp": 6428,
      "Ġná»ĩm": 6429,
      "ĠThuáº¿": 6430,
      "du": 6431,
      "ĠCEO": 6432,
      "ĠMáºŃu": 6433,
      "ader": 6434,
      "ĠThao": 6435,
      "Ġ350": 6436,
      "Ãģo": 6437,
      "ĠHá»ķ": 6438,
      "áº½n": 6439,
      "Ġbaccarat": 6440,
      "ĠAlex": 6441,
      "ĠYam": 6442,
      "PC": 6443,
      "Xuáº¥t": 6444,
      "ĠrÃ²": 6445,
      "atin": 6446,
      "fl": 6447,
      "ĠGTVT": 6448,
      "Ġgáº§m": 6449,
      "ĠHol": 6450,
      "DT": 6451,
      "YÃªu": 6452,
      "Ã³p": 6453,
      "ĠÃĤn": 6454,
      "Ġbá»±c": 6455,
      "Æ¯á»ļC": 6456,
      "ĠXiaomi": 6457,
      "ĠsÃłnh": 6458,
      "ĠCÃºp": 6459,
      "ĠUnivers": 6460,
      "obot": 6461,
      "Tube": 6462,
      "ĠchÃ´n": 6463,
      "ĠMel": 6464,
      "ĠBiá»ĥu": 6465,
      "enz": 6466,
      "Æ¡ng": 6467,
      "ĠHua": 6468,
      "ĠKá»ĥ": 6469,
      "ĠRep": 6470,
      "UYá»": 6471,
      "ĠIELTS": 6472,
      "ĠãĢĤ": 6473,
      "Bao": 6474,
      "à¹": 6475,
      "Ġ66": 6476,
      "ĠKhá»ĳi": 6477,
      "ĠsÆ°á»Łi": 6478,
      "ique": 6479,
      "ject": 6480,
      "ĠMat": 6481,
      "Tiáº¿ng": 6482,
      "ĠNÃło": 6483,
      "ĠSáº¢N": 6484,
      "ĠZing": 6485,
      "ĠMaster": 6486,
      "ĠBarca": 6487,
      "ĠgÃ¢n": 6488,
      "Ġwas": 6489,
      "EX": 6490,
      "ĠBá»Ļt": 6491,
      "utin": 6492,
      "Gá»Ńi": 6493,
      "ĠTÆ°á»Łng": 6494,
      "ĠLáº¡p": 6495,
      "ĠâĤ«": 6496,
      "ĠMus": 6497,
      "ĠLáº¡ng": 6498,
      "Lá»ħ": 6499,
      "ĠCÃ´n": 6500,
      "ĠLiá»ħu": 6501,
      "PG": 6502,
      "ning": 6503,
      "Ġuáº¥t": 6504,
      "ĠID": 6505,
      "ages": 6506,
      "ĠkiÃªu": 6507,
      "áºº": 6508,
      "ĠthÃŃnh": 6509,
      "ĠDec": 6510,
      "Ġ188": 6511,
      "Net": 6512,
      "ĠxÃłi": 6513,
      "ĠMÃģY": 6514,
      "ella": 6515,
      "Ã©c": 6516,
      "ÄĲá»©c": 6517,
      "Ġ79": 6518,
      "ottenham": 6519,
      "emon": 6520,
      "Ġkhinh": 6521,
      "ÄĲoÃłn": 6522,
      "Tráº»": 6523,
      "cÃ¡ch": 6524,
      "ĠPin": 6525,
      "ĠExcel": 6526,
      "Ġngá»¡": 6527,
      "ĠHÃ¢n": 6528,
      "Ġgáº§y": 6529,
      "Ġháº¯c": 6530,
      "?\".": 6531,
      "ĠSá»¹": 6532,
      "ĠArt": 6533,
      "aya": 6534,
      "ĠCÆ°": 6535,
      "ĠCá»±c": 6536,
      "ÄĳÆ°á»£c": 6537,
      "Ġna": 6538,
      "ĠnÃłn": 6539,
      "Ġback": 6540,
      "ĠÆ°": 6541,
      "Ġmá»§": 6542,
      "Ġblock": 6543,
      "Ġtuá»³": 6544,
      "ĠCáº£ng": 6545,
      "ĠÄĲÃ¡ng": 6546,
      "ourinho": 6547,
      "LL": 6548,
      "á»īu": 6549,
      "ĠDao": 6550,
      "ĠGiáº£": 6551,
      "Kem": 6552,
      "han": 6553,
      "Ġtro": 6554,
      "ĠKon": 6555,
      "Ġcarb": 6556,
      "ĠFC": 6557,
      "Ġphá»Ł": 6558,
      "ĠnÃłnh": 6559,
      "ÄĲá»ĵ": 6560,
      "ĠCas": 6561,
      "PP": 6562,
      "ĠBTC": 6563,
      "ĠÄĲÃªm": 6564,
      "edu": 6565,
      "ĠCA": 6566,
      "ĠSÃ¢m": 6567,
      "hy": 6568,
      "ĠKhÃ³a": 6569,
      "ĠBB": 6570,
      "ĠLU": 6571,
      "chain": 6572,
      "Pro": 6573,
      "iforn": 6574,
      "Ġvo": 6575,
      "ĠÄĲÃ¨n": 6576,
      "Ġfrom": 6577,
      "Ġlay": 6578,
      "ĠlÃ¡ng": 6579,
      "ple": 6580,
      "aco": 6581,
      "bon": 6582,
      "ĠNáº±m": 6583,
      "ĠMÃ¹i": 6584,
      "ĠST": 6585,
      "ĴNG": 6586,
      "Ġngá»¥c": 6587,
      "ĠDá»¤": 6588,
      "ĠStudio": 6589,
      "ĠkhiÃªu": 6590,
      "Ġ2003": 6591,
      "for": 6592,
      "ĠPo": 6593,
      "ĠAT": 6594,
      "ifornia": 6595,
      "ÄĳÃ£": 6596,
      "ĠNi": 6597,
      "Ġkhuáº¥y": 6598,
      "OV": 6599,
      "Ġhuyá»ĩt": 6600,
      "ĠKitÃ´": 6601,
      "ľI": 6602,
      "Ġ72": 6603,
      "Sá»©c": 6604,
      "ado": 6605,
      "INE": 6606,
      "87": 6607,
      "Cáº£nh": 6608,
      "ĠbÆ°á»Łi": 6609,
      "ĠXu": 6610,
      "exico": 6611,
      "irus": 6612,
      "Sá»¯a": 6613,
      "ĠNat": 6614,
      "quan": 6615,
      "BÃ¡nh": 6616,
      "ĠVP": 6617,
      "the": 6618,
      "Â²": 6619,
      "ĠNgÆ°á»£c": 6620,
      "ield": 6621,
      "Ġliáº¿c": 6622,
      "Ġngáº¥t": 6623,
      "Vietnam": 6624,
      "Kim": 6625,
      "Ġlá»Ļng": 6626,
      "Ġhoáº¡": 6627,
      "ĠrÆ°á»Ľc": 6628,
      "ĠBM": 6629,
      "ĠBá»ī": 6630,
      "ĠÂ«": 6631,
      "ĠngáºŃm": 6632,
      "ler": 6633,
      "ĠNhuáºŃn": 6634,
      "Ġsi": 6635,
      "ĠSG": 6636,
      "dan": 6637,
      "Ġgym": 6638,
      "ĠVÆ°á»Ŀn": 6639,
      "EW": 6640,
      "ĠSn": 6641,
      "ology": 6642,
      "Ġtime": 6643,
      "ãĥ": 6644,
      "ĠCanh": 6645,
      "Nhá»Ŀ": 6646,
      "XVN": 6647,
      "ĠFB": 6648,
      "150": 6649,
      "Iá»ĢN": 6650,
      "ĠTC": 6651,
      "ĠMá»Ŀi": 6652,
      "Ġgá»¥c": 6653,
      "iness": 6654,
      "League": 6655,
      "ange": 6656,
      "ĠHá»Ĩ": 6657,
      "ĠrÃ¡t": 6658,
      "ĠReview": 6659,
      "Ġcor": 6660,
      "Ġmodel": 6661,
      "ĠTá»ĳc": 6662,
      "ĠghÃª": 6663,
      "ĠVic": 6664,
      "Ġchá»Ľ": 6665,
      "ĠTokyo": 6666,
      "Ġkhan": 6667,
      ".)": 6668,
      "ĠvÃłn": 6669,
      "Ġláº«y": 6670,
      "ĠCenter": 6671,
      "ĠSub": 6672,
      "ĠThiá»ģn": 6673,
      "ĠCháº¥p": 6674,
      "Ġ%": 6675,
      "NhÃ³m": 6676,
      "ĠYoutube": 6677,
      "ĠBus": 6678,
      "Ca": 6679,
      "Ġtru": 6680,
      "(\"": 6681,
      "Ġcá»ĳi": 6682,
      "ĠShow": 6683,
      "Ġnlá»Ĺi": 6684,
      "Ind": 6685,
      "Tá»±": 6686,
      "ĠsÃ¹i": 6687,
      "Ġchol": 6688,
      "ĠdÃª": 6689,
      "Má»Ł": 6690,
      "Ġbáº¡": 6691,
      "ĠkhÃ¡nh": 6692,
      "ĠbÃ¬a": 6693,
      "Bá»ĭ": 6694,
      "Ġdr": 6695,
      "ons": 6696,
      "Tá»ĳi": 6697,
      "ĠLÃ¡": 6698,
      "ĠDÃ¢y": 6699,
      "ĠChoi": 6700,
      "ĠGDP": 6701,
      "ĠKhÃ¡c": 6702,
      "ille": 6703,
      "DN": 6704,
      "Ġrá»§": 6705,
      "ĠQL": 6706,
      "Nghá»ĩ": 6707,
      "Ġngá»ĳc": 6708,
      "ĠSV": 6709,
      "ĠChá»ĳng": 6710,
      "Ãī": 6711,
      "ĠKar": 6712,
      "Ġquá»µ": 6713,
      "NgÆ°Æ¡i": 6714,
      "Ġ->": 6715,
      "ĠCR": 6716,
      "ĠKiá»ĥu": 6717,
      "Ġmenu": 6718,
      "ĠLog": 6719,
      "áº¨M": 6720,
      "ĠhiÃªn": 6721,
      "code": 6722,
      "chá»ī": 6723,
      "Ġrá»Ļ": 6724,
      "ĠZalo": 6725,
      "ĠTom": 6726,
      "ĠMB": 6727,
      "TÆ°Æ¡ng": 6728,
      "Ġsáº¿p": 6729,
      "pha": 6730,
      "ĠDÄ©": 6731,
      "MA": 6732,
      "ÄĤM": 6733,
      "ĠVá»£": 6734,
      "Æ°á»Ŀm": 6735,
      "Ġphot": 6736,
      "ĠLáº¯k": 6737,
      "ese": 6738,
      "Tinh": 6739,
      "á»¥i": 6740,
      "ĠChar": 6741,
      "CáºŃu": 6742,
      "250": 6743,
      "å¹": 6744,
      "Ġ89": 6745,
      "Ġnhá»ıng": 6746,
      "ĠIsrael": 6747,
      "ani": 6748,
      "ĠArgentina": 6749,
      "ĠXá»Ń": 6750,
      "Giáº¥y": 6751,
      "Ġtháº£n": 6752,
      "Ġnet": 6753,
      "anmar": 6754,
      "aza": 6755,
      "ĠTrÃłng": 6756,
      "ÃĴNG": 6757,
      "ĠBinh": 6758,
      "CÄĲ": 6759,
      "ĠmÃło": 6760,
      "Ġcháº§n": 6761,
      "Ġmicro": 6762,
      "alia": 6763,
      "si": 6764,
      "Ġbá»ĩ": 6765,
      "ĠBáº¿p": 6766,
      "vo": 6767,
      "Ġsil": 6768,
      "Ġmáº¯ng": 6769,
      "ARS": 6770,
      "Ġná»©c": 6771,
      "Ġdes": 6772,
      "Sá»Ńa": 6773,
      "Ġgieo": 6774,
      "Ġranh": 6775,
      "TÃ¹y": 6776,
      "ĠVáº¥p": 6777,
      "ĠLIÃĬN": 6778,
      "Ġbáº«y": 6779,
      "atar": 6780,
      "ĠcÃºm": 6781,
      "Ġdoi": 6782,
      "ury": 6783,
      "ĠYouTube": 6784,
      "str": 6785,
      "ĠMiss": 6786,
      "Háº£i": 6787,
      "uel": 6788,
      "ux": 6789,
      "ĠMÃ´ng": 6790,
      "br": 6791,
      "Ġgirl": 6792,
      "pg": 6793,
      "Ġtp": 6794,
      "Ġcáº±m": 6795,
      "iki": 6796,
      "men": 6797,
      "ĠbÆ°u": 6798,
      "ific": 6799,
      "NháºŃt": 6800,
      "ĠSm": 6801,
      "ĠNGHIá»Ĩ": 6802,
      "giÃ¡": 6803,
      "Ġhoi": 6804,
      "ĠFran": 6805,
      "ĠhÄĥng": 6806,
      "Ġthá»§ng": 6807,
      "ĠTQ": 6808,
      "Ġ2004": 6809,
      "ĠHouse": 6810,
      "ware": 6811,
      "Ġ1900": 6812,
      "Ġngáº¡ch": 6813,
      "ek": 6814,
      "ĠKhÆ°Æ¡ng": 6815,
      "ĠnÃ¡ch": 6816,
      "ĠNÃ¢ng": 6817,
      "ĠNghiá»ģn": 6818,
      "ĠVá»Ģ": 6819,
      "vietnam": 6820,
      "hoa": 6821,
      "ĠMá»Ļ": 6822,
      "ĠSouth": 6823,
      "khoáº£ng": 6824,
      "ĠGT": 6825,
      "ĠHá»Ļ": 6826,
      "ĠÄĲang": 6827,
      "LÃ¢m": 6828,
      "ĠÄĳÃ¡n": 6829,
      "Ġkhay": 6830,
      "Ġre": 6831,
      "Ġar": 6832,
      "Ġcholesterol": 6833,
      "ĠdÆ°ng": 6834,
      "DR": 6835,
      "TTQ": 6836,
      "ĠhÃ£m": 6837,
      "ĠAmazon": 6838,
      "box": 6839,
      "ChÃº": 6840,
      "......": 6841,
      "ĠMáº¡i": 6842,
      "Báº¯t": 6843,
      "ĠGá»Ńi": 6844,
      "ĠISO": 6845,
      "Ġgiá»ı": 6846,
      "ĠCÃģC": 6847,
      "Tá»§": 6848,
      "ĠCalifornia": 6849,
      "Ġnhá»įc": 6850,
      "Ġniá»ģng": 6851,
      "Äĳá»ĥ": 6852,
      "ĠgÃ²": 6853,
      "ĠÃģp": 6854,
      "aby": 6855,
      "DL": 6856,
      "BO": 6857,
      "ĠCV": 6858,
      "NgÃ¢n": 6859,
      "ĠPhá»ķ": 6860,
      "Giáº£m": 6861,
      "æľ": 6862,
      "ĠMaria": 6863,
      "á»ĲI": 6864,
      "Ġchat": 6865,
      "Ġgáº¥u": 6866,
      "CV": 6867,
      "Ká»¹": 6868,
      "Ġ53": 6869,
      "áº¿ng": 6870,
      "Ġxsm": 6871,
      "ĠQuáº¿": 6872,
      "ĠIV": 6873,
      "ĠTá»§": 6874,
      "HS": 6875,
      "anda": 6876,
      "ĠPhÃŃa": 6877,
      "Ġdáº¡n": 6878,
      "plant": 6879,
      "ĠMT": 6880,
      "lÆ°á»£ng": 6881,
      "ĠHáº¡t": 6882,
      "ĠSá»Ńu": 6883,
      "ĠTÆ¯": 6884,
      "Ġngháº½n": 6885,
      "ĠHel": 6886,
      "lyc": 6887,
      "ida": 6888,
      "ĠTottenham": 6889,
      "ĠÄĲá»ĵn": 6890,
      "ĠGB": 6891,
      "ima": 6892,
      "Ġtá»¥i": 6893,
      "ĠTá»ĭnh": 6894,
      "MÃ³n": 6895,
      "Ġcá»Ļ": 6896,
      "ĠgÃ³t": 6897,
      "ĠDong": 6898,
      "83": 6899,
      "ĠIr": 6900,
      "Ġgiáº¿ng": 6901,
      "ĠLá»±a": 6902,
      "áº¸": 6903,
      "Ġcontainer": 6904,
      "enh": 6905,
      "Ġvá»Ľt": 6906,
      "ĠNá»ĺI": 6907,
      "Ġque": 6908,
      "ĠKi": 6909,
      "áº¤P": 6910,
      "wood": 6911,
      "ĠPhÃłm": 6912,
      "ĠpháºŃt": 6913,
      "ĠTra": 6914,
      "ĠXá»īu": 6915,
      "Ġni": 6916,
      "Ġxáº¯c": 6917,
      "Ġtá»ĭnh": 6918,
      "ĠTum": 6919,
      "Ġshare": 6920,
      "ori": 6921,
      "ÄĲÃ´i": 6922,
      "Ġcá»Ľ": 6923,
      "ĠIntel": 6924,
      "ĠMos": 6925,
      "ÃĤM": 6926,
      "PA": 6927,
      "Ġcac": 6928,
      "Ġnhá»ķ": 6929,
      "ĠphÃ¡c": 6930,
      "ÃĶI": 6931,
      "ĠCle": 6932,
      "xÃ£": 6933,
      "âĢ¦)": 6934,
      "ĠFI": 6935,
      "tri": 6936,
      "aba": 6937,
      "ĠJuventus": 6938,
      "Ġmg": 6939,
      "ĠgÃ¡y": 6940,
      "ĠgiÆ¡": 6941,
      "ðĿĲ": 6942,
      "ĠRO": 6943,
      "Ġnhiá»ħu": 6944,
      "ĠHáº¡o": 6945,
      "ĠTáº·ng": 6946,
      "osa": 6947,
      "ĠBank": 6948,
      "Ġtháº¡o": 6949,
      "okia": 6950,
      "mua": 6951,
      "Pháº£i": 6952,
      "vá»Ľi": 6953,
      "erg": 6954,
      "Ġchá»įi": 6955,
      "NV": 6956,
      "sau": 6957,
      "bit": 6958,
      "Ġmáº©n": 6959,
      "Ġkhuya": 6960,
      "ÃĻNG": 6961,
      "ĠsáºŃp": 6962,
      "ĠtoÃł": 6963,
      "á»ım": 6964,
      "ãĤ": 6965,
      "Ġlá»Ńng": 6966,
      "ĠHiá»ĥn": 6967,
      "ael": 6968,
      "ĠNetwork": 6969,
      "Ġáº¨": 6970,
      "MÃłn": 6971,
      "Ġquá»³": 6972,
      "ading": 6973,
      "oster": 6974,
      "ĠTimes": 6975,
      "way": 6976,
      "ĠliÃªng": 6977,
      "Ġvá»ĭnh": 6978,
      "2007": 6979,
      "Press": 6980,
      "ĠphiÃªu": 6981,
      "ĠchoÃ¡ng": 6982,
      "berg": 6983,
      "Ġhorm": 6984,
      "Ġgiáº·c": 6985,
      "ĠTháº»": 6986,
      "ĠSáº¯c": 6987,
      "Ġxua": 6988,
      "ĠThiá»ĩu": 6989,
      "ĠLaptop": 6990,
      "ĠchÃ¨n": 6991,
      "ĠCÃĵ": 6992,
      "Chuyá»ĥn": 6993,
      "Ġresort": 6994,
      "huyá»ĩn": 6995,
      "Kiáº¿n": 6996,
      "ST": 6997,
      "Ġsá»«ng": 6998,
      "Ġcolor": 6999,
      "ĠHá»©a": 7000,
      "Cáº§u": 7001,
      "ĠNÃºi": 7002,
      "NÆ¡i": 7003,
      "ealth": 7004,
      "Minh": 7005,
      "MI": 7006,
      "Ġnga": 7007,
      "awa": 7008,
      "ĠDavid": 7009,
      "Ġvá»īa": 7010,
      "ĠQuáº§n": 7011,
      "QuÃ¡": 7012,
      "Ġnáº¿m": 7013,
      "Ġxiáº¿t": 7014,
      "ĠTráºŃn": 7015,
      "ĠKCN": 7016,
      "ĠGá»Ĺ": 7017,
      "Iáº¾N": 7018,
      "Háº§u": 7019,
      "Al": 7020,
      "Ġháº»m": 7021,
      "ĠBeauty": 7022,
      "Ġdec": 7023,
      "ren": 7024,
      "Ġmien": 7025,
      "ĠLÃ¢u": 7026,
      "iverside": 7027,
      "ĠMexico": 7028,
      "ĠEth": 7029,
      "ĠVÃ¹ng": 7030,
      "ĠMen": 7031,
      "ĠMit": 7032,
      "ĠSec": 7033,
      "trang": 7034,
      "á»Į": 7035,
      "ĠMÆ¡": 7036,
      "ĠChÃŃn": 7037,
      "ĠNHáº¤T": 7038,
      "UN": 7039,
      "ĠxÃ©": 7040,
      "Ġchá»ĳc": 7041,
      "Ġ67": 7042,
      "ĠÃģi": 7043,
      "Un": 7044,
      "ĠGeo": 7045,
      "GI": 7046,
      "ĠgÄĥng": 7047,
      "Ġnáº£n": 7048,
      "Ġvá»įt": 7049,
      "ĠMourinho": 7050,
      "ĠMercedes": 7051,
      "ĠWi": 7052,
      "DÃ²ng": 7053,
      "Tuyá»ĥn": 7054,
      "Ġab": 7055,
      "Ġnhiáº¿p": 7056,
      "åĲ": 7057,
      "ĠTÃ½": 7058,
      "ĠrÃ¡n": 7059,
      "ĠBá»ķ": 7060,
      "alog": 7061,
      "Ġquáº¥y": 7062,
      "ĠLiga": 7063,
      "illa": 7064,
      "Ġrobot": 7065,
      "ĠStore": 7066,
      "anta": 7067,
      "ĠTuyá»ĩt": 7068,
      "AV": 7069,
      "uz": 7070,
      "CK": 7071,
      "cá»§a": 7072,
      "ĠLÃłng": 7073,
      "Ġcr": 7074,
      "Ġ57": 7075,
      "Ġcá»«u": 7076,
      "ĠVá»ĭnh": 7077,
      "ĠGhi": 7078,
      "ĠUá»ĳng": 7079,
      "ĠDiá»ħm": 7080,
      "ĠLuáºŃn": 7081,
      "Ġphai": 7082,
      "ĠMÃª": 7083,
      "ĠMas": 7084,
      "ĠSEA": 7085,
      "ĠnhÃłn": 7086,
      "ĠCÃ¡p": 7087,
      "ĠgiÃ£": 7088,
      "ĠBiden": 7089,
      "ĠchÃ³i": 7090,
      "á»£n": 7091,
      "Tuá»ķi": 7092,
      "set": 7093,
      "ĠHáº¡n": 7094,
      "ĠnÃ¡o": 7095,
      "vision": 7096,
      "ĠLuc": 7097,
      "Ġhá»ĩt": 7098,
      "ĠTRONG": 7099,
      "ĠHill": 7100,
      "may": 7101,
      "ĠhÃ©": 7102,
      "Ġmá»ĵm": 7103,
      "Ġgr": 7104,
      "Ġkhá»ĳc": 7105,
      "ÄĲÃ¨n": 7106,
      "oshi": 7107,
      "Hu": 7108,
      "Táº¡o": 7109,
      "Ġcáº©u": 7110,
      "BÃ¢y": 7111,
      "ĠDáºŃu": 7112,
      "Ġhanh": 7113,
      "ĠHIV": 7114,
      "ĠSlot": 7115,
      "Má»©c": 7116,
      "Ġtien": 7117,
      "ĠJul": 7118,
      "giá»Ŀ": 7119,
      "ĠVol": 7120,
      "Ġgoogle": 7121,
      "stem": 7122,
      "Ġios": 7123,
      "áº¾N": 7124,
      "oom": 7125,
      "âĺ": 7126,
      "Ġlá»ĵn": 7127,
      "áº¤N": 7128,
      "Iá»ĢU": 7129,
      "Diá»ĩn": 7130,
      "ĠthÃªu": 7131,
      "ĠTÃ³c": 7132,
      "ĠtoÃ¡t": 7133,
      "Ġapk": 7134,
      "ĠlÆ°á»£n": 7135,
      "otel": 7136,
      "ĠBlue": 7137,
      "áº¶T": 7138,
      "ĠThÃº": 7139,
      "ĠJames": 7140,
      "Ġout": 7141,
      "ĠÄĳÃ¡i": 7142,
      "ican": 7143,
      "ĠNhan": 7144,
      "Cháº¯c": 7145,
      "uss": 7146,
      "Ġtáº¡ng": 7147,
      "ii": 7148,
      "Quá»ĳc": 7149,
      "Ġfree": 7150,
      "Lá»±a": 7151,
      "KhÃ¡m": 7152,
      "ÃģNG": 7153,
      "Ġgá»Łi": 7154,
      "USD": 7155,
      "ĠInstagram": 7156,
      "Review": 7157,
      "ViÃªm": 7158,
      "ĠTráº¥n": 7159,
      "ĠMyanmar": 7160,
      "Wh": 7161,
      "Ġsáº§m": 7162,
      "ĠCNTT": 7163,
      "ĠmÃ¡c": 7164,
      "ĠgáºŃy": 7165,
      "ĠquáºŃt": 7166,
      "ĠÄĳÅ©a": 7167,
      "ĠShin": 7168,
      "ĠHÃ²n": 7169,
      "ĠMr": 7170,
      "cast": 7171,
      "Ġnhat": 7172,
      "ĠOanh": 7173,
      "Ġmac": 7174,
      "ĠWill": 7175,
      "ĠlÃ©n": 7176,
      "ĠVIP": 7177,
      "ĠPutin": 7178,
      "Quáº£n": 7179,
      "123": 7180,
      "Ġ>>": 7181,
      "ĠCá»ĳc": 7182,
      "Cao": 7183,
      "ĠCty": 7184,
      "ĠUtd": 7185,
      "appy": 7186,
      "ĠObama": 7187,
      "vin": 7188,
      "Ġmake": 7189,
      "ĠGiá»ĳng": 7190,
      "cong": 7191,
      "ĠMÅ©i": 7192,
      "ÆłN": 7193,
      "ĠDÆ°á»¡ng": 7194,
      "Khoáº£ng": 7195,
      "Muá»ĳn": 7196,
      "á»ĥn": 7197,
      "ĠFin": 7198,
      "kinh": 7199,
      "Ġcar": 7200,
      "Ġnhai": 7201,
      "ĠTag": 7202,
      "ĠDá»°": 7203,
      "ĠNgÆ°": 7204,
      "Ġlá»«ng": 7205,
      "BT": 7206,
      "MC": 7207,
      "ĠÄĲáº¥u": 7208,
      "Äĳá»Ļ": 7209,
      "Ġall": 7210,
      "Ġcáº¡o": 7211,
      "ÄĲÃł": 7212,
      "Thi": 7213,
      "Ġráº£nh": 7214,
      "ĠCÃºc": 7215,
      "alk": 7216,
      "Tiáº¿n": 7217,
      "Ġthá»ı": 7218,
      "ĠKang": 7219,
      "Cháº¿": 7220,
      "\";": 7221,
      "LÃª": 7222,
      "Ġbus": 7223,
      "ĠMáº¯t": 7224,
      "ĠChá»¯": 7225,
      "ãĢĲ": 7226,
      "mo": 7227,
      "ĠJin": 7228,
      "ĠLux": 7229,
      "Ġá´ł": 7230,
      "ĠFree": 7231,
      "eta": 7232,
      "Ġ86": 7233,
      "ĠkhÃŃt": 7234,
      "ĠÄĳá»Ŀ": 7235,
      "ãĢĳ": 7236,
      "Ġráº¡n": 7237,
      "Ġnhá»Ľt": 7238,
      "ĠVá»": 7239,
      "ĠSi": 7240,
      "ĠWhite": 7241,
      "Láº¥y": 7242,
      "SC": 7243,
      "ĠQuá»·": 7244,
      "ĠMedia": 7245,
      "ĠSARS": 7246,
      "ys": 7247,
      "Ġgl": 7248,
      "ÄĲang": 7249,
      "ĠphÃ´ng": 7250,
      "ĠxÃ³c": 7251,
      "ĠHá»ıi": 7252,
      "ĠKhanh": 7253,
      "PhiÃªn": 7254,
      "Cháº³ng": 7255,
      "ÂŃ": 7256,
      "ĠHuawei": 7257,
      "nÃ³ng": 7258,
      "Ġtháº¯p": 7259,
      "ĠSl": 7260,
      "NghiÃªn": 7261,
      "ĠcÆ°a": 7262,
      "Ġtab": 7263,
      "ci": 7264,
      "pearl": 7265,
      "ye": 7266,
      "ĠCry": 7267,
      "ĠLO": 7268,
      "ĠDinh": 7269,
      "Ġchui": 7270,
      "ĠGaming": 7271,
      "ĠnhÃłm": 7272,
      "ĠAdmin": 7273,
      "ĠtrÃªu": 7274,
      "Ġyoga": 7275,
      "Ġev": 7276,
      "ĠPGS": 7277,
      "itar": 7278,
      "Ġ62": 7279,
      "ĠMed": 7280,
      "Ġthoáº£": 7281,
      "sá»ĳ": 7282,
      "reat": 7283,
      "Ġngháº¹t": 7284,
      "ĠTuáº¥t": 7285,
      "ĠPSG": 7286,
      "Ġpiano": 7287,
      "ĠLau": 7288,
      "can": 7289,
      "Ġviáº¿ng": 7290,
      "ĠNgÆ°Æ¡i": 7291,
      "ĠNhá»ĭ": 7292,
      "cÃ´": 7293,
      "ĠÄĳÆ°Æ¡": 7294,
      "ĠGiÃ¡c": 7295,
      "ÑĤ": 7296,
      "ĠLuÃ´n": 7297,
      "Ġplay": 7298,
      "Æ£": 7299,
      "Ġtháº¯n": 7300,
      "Ġchá»«": 7301,
      "ĠgáºŃp": 7302,
      "ĠÄĲÃ¡p": 7303,
      "Ġ220": 7304,
      "Ġ024": 7305,
      "Ġ130": 7306,
      "ĠtÃ¡t": 7307,
      "ĠBáº§u": 7308,
      "ato": 7309,
      "NÃłng": 7310,
      "bb": 7311,
      "cua": 7312,
      "ĠLaz": 7313,
      "Ġlá»¥t": 7314,
      "ĠÄĳá»ĳ": 7315,
      "ĠThan": 7316,
      "LuáºŃt": 7317,
      "ĠLen": 7318,
      "ĠRou": 7319,
      "82": 7320,
      "IK": 7321,
      "ĠTráº£i": 7322,
      "ĠEle": 7323,
      "estay": 7324,
      "ĠHOT": 7325,
      "ĠTrÃ¡nh": 7326,
      "ĠAf": 7327,
      "ness": 7328,
      "ĠMÃ£i": 7329,
      "lobal": 7330,
      "Ġ''": 7331,
      "ĠKÃªnh": 7332,
      "ÃĲ": 7333,
      "Ġcáº·n": 7334,
      "ĠnháºŃu": 7335,
      "ĠCáº£i": 7336,
      "báº¡n": 7337,
      "Ġthuong": 7338,
      "ĠRang": 7339,
      "ĠMÆ°á»Ŀng": 7340,
      "áº©ng": 7341,
      "star": 7342,
      "cam": 7343,
      "ĠHÄĲQT": 7344,
      "Ġrá»Ľt": 7345,
      "ĠChrist": 7346,
      "ĠLÄĲ": 7347,
      "Hoáº¡t": 7348,
      "Báº±ng": 7349,
      "ĠDai": 7350,
      "andal": 7351,
      "ĠForex": 7352,
      "Ġvá»¥n": 7353,
      "Ġday": 7354,
      "ĠPoker": 7355,
      "ĠOffice": 7356,
      "á»ĢN": 7357,
      "Ġchuá»ĵng": 7358,
      "Ġuá»·": 7359,
      "ĠAmer": 7360,
      "Ġlives": 7361,
      "ealand": 7362,
      "Tai": 7363,
      "eral": 7364,
      "ĠBos": 7365,
      "shop": 7366,
      "ĠlÃ¬": 7367,
      "ĠBHYT": 7368,
      "ds": 7369,
      "ĠBuÃ´n": 7370,
      "áºª": 7371,
      "ĠMun": 7372,
      "ĠgiÃ¡ng": 7373,
      "Book": 7374,
      "oli": 7375,
      "FP": 7376,
      "ĠtuÃ½": 7377,
      "ĠchÃ¹i": 7378,
      "esh": 7379,
      "Lá»£i": 7380,
      "ĠvÆ¡": 7381,
      "Ġtráº§y": 7382,
      "Ġsá»¥n": 7383,
      "Ġkhá»ĳn": 7384,
      "ĠYoga": 7385,
      "áº¢NG": 7386,
      "ffee": 7387,
      "Ġje": 7388,
      "Ká»ĥ": 7389,
      "á»ĩn": 7390,
      "ĠUN": 7391,
      "Ġ125": 7392,
      ":\"": 7393,
      "Ká»³": 7394,
      "ations": 7395,
      "ieng": 7396,
      "ĠnhÃ³c": 7397,
      "TE": 7398,
      "ound": 7399,
      "Ġphá»ĵng": 7400,
      "ĠRiverside": 7401,
      "ova": 7402,
      "ĠSoc": 7403,
      "á»ıe": 7404,
      "Ġdata": 7405,
      "ĠrÃ£": 7406,
      "ĠNghiÃªm": 7407,
      "ĠQUá»ĲC": 7408,
      "Ġupdate": 7409,
      "ĠCáºŃn": 7410,
      "ootball": 7411,
      "azda": 7412,
      "brid": 7413,
      "ĠnÃ£y": 7414,
      "rop": 7415,
      "ĠKhoáº£n": 7416,
      "Ġthá»ĳi": 7417,
      "ĠBayern": 7418,
      "Ġquáº¿": 7419,
      "Ġtáº¥u": 7420,
      "ĠWordPress": 7421,
      "GA": 7422,
      "ĠmÄ©": 7423,
      "olic": 7424,
      "ĠkÃŃp": 7425,
      "!\".": 7426,
      "ĠSINH": 7427,
      "of": 7428,
      "Ġtáº£o": 7429,
      "asonic": 7430,
      "raq": 7431,
      "á»ĺT": 7432,
      "ĠÄĳáº¥m": 7433,
      "ĠnhÃ¡i": 7434,
      "iter": 7435,
      "Ġngá»Ŀi": 7436,
      "ÄĲáº¥t": 7437,
      "trung": 7438,
      "ĠLed": 7439,
      "ĠLeg": 7440,
      "96": 7441,
      "ĠTHÃĢNH": 7442,
      "iber": 7443,
      "ĠSapa": 7444,
      "Ġtoan": 7445,
      "ĠchÆ°á»Ľng": 7446,
      "jpg": 7447,
      "ĠAR": 7448,
      "Ġcap": 7449,
      "ĠXU": 7450,
      "ĠnÃ¨": 7451,
      "TÃ¢m": 7452,
      "Ġrá»Ĺi": 7453,
      "elf": 7454,
      "ĠOf": 7455,
      "ected": 7456,
      "ĠLÃ²": 7457,
      "ĠPR": 7458,
      "Ġrá»Ĺng": 7459,
      "ushi": 7460,
      "ThÆ°á»Ŀng": 7461,
      "å¹´": 7462,
      "Ġrep": 7463,
      "Ġ2025": 7464,
      "ĠDá»¤NG": 7465,
      "Ġbody": 7466,
      "ĠkÃ¬m": 7467,
      "ven": 7468,
      "Ġmoi": 7469,
      "ider": 7470,
      "obe": 7471,
      "Ġngá»Ńa": 7472,
      "ĠCÃłi": 7473,
      "ĠGP": 7474,
      "ĠPhá»¥ng": 7475,
      "phong": 7476,
      "ĠThai": 7477,
      "ĠCHÃįNH": 7478,
      "back": 7479,
      "ĠHÅ©": 7480,
      "ĠLá»Ľn": 7481,
      "cean": 7482,
      "ĠSeoul": 7483,
      "ĠBy": 7484,
      "ĠKen": 7485,
      "ĠChinh": 7486,
      "Ġ1975": 7487,
      "ĠÄĳÃłng": 7488,
      "Ġmiá»ĩn": 7489,
      "\").": 7490,
      "ĠsÃ´": 7491,
      "ĠKHO": 7492,
      "Ġnhá»ĵi": 7493,
      "ĠPhÃ³ng": 7494,
      "TD": 7495,
      "ĠmÃ©p": 7496,
      "ĠvÃ²m": 7497,
      "CE": 7498,
      "Ġkháº¯t": 7499,
      "ĠKia": 7500,
      "%;": 7501,
      "FT": 7502,
      "IL": 7503,
      "ĠTáº¥m": 7504,
      "ĠvÃŃt": 7505,
      "ĠCSGT": 7506,
      "ĠGa": 7507,
      "Chung": 7508,
      "ĠNgá»į": 7509,
      "ĠMor": 7510,
      "Ġ78": 7511,
      "ude": 7512,
      "itle": 7513,
      "Æ¯á»ľI": 7514,
      "ĠPa": 7515,
      "ĠGH": 7516,
      "ĠNhá»Ľ": 7517,
      "Ġ61": 7518,
      "ĠTHÃĶNG": 7519,
      "ĠPaul": 7520,
      "ĠDá»ħ": 7521,
      "TÃ¢n": 7522,
      "cao": 7523,
      "ĠmÃ¹ng": 7524,
      "ĠquÃŃ": 7525,
      "Ġsáº£": 7526,
      "ĠMá»Ļng": 7527,
      "unction": 7528,
      "Ġquyá»ĩn": 7529,
      "ĠGIá»": 7530,
      "ĠÄĲáº±ng": 7531,
      "ĠLin": 7532,
      "Ġ128": 7533,
      "ME": 7534,
      "QL": 7535,
      "Ġpho": 7536,
      "ĠHoÃ¡": 7537,
      "Ġngáº©ng": 7538,
      "ĠBiáº¿n": 7539,
      "read": 7540,
      "ĠNhÆ°á»£c": 7541,
      "ĠThá»ĭt": 7542,
      "ĠÄĲá»ĺNG": 7543,
      "ĠquyÃªn": 7544,
      "ĠComments": 7545,
      "ĠRoyal": 7546,
      "Ġpoker": 7547,
      "Ġ76": 7548,
      "Truyá»ĩn": 7549,
      "ĠFort": 7550,
      "á»¤C": 7551,
      "facebook": 7552,
      "Iá»ĤM": 7553,
      "Ah": 7554,
      "ĠPhot": 7555,
      "2006": 7556,
      "ĠAsia": 7557,
      "TÃ³m": 7558,
      "ipt": 7559,
      "91": 7560,
      "Ġ160": 7561,
      "ĠHTX": 7562,
      "ĠCáº¥u": 7563,
      "ĠZealand": 7564,
      "letico": 7565,
      "DÆ°Æ¡ng": 7566,
      "tá»±": 7567,
      "ĠÄĲá»Ĭ": 7568,
      "light": 7569,
      "Ġel": 7570,
      "Ġ81": 7571,
      "Ġprot": 7572,
      "ĠBluetooth": 7573,
      "ĠvÃ¡c": 7574,
      "ĠTráº¡m": 7575,
      "ĠMáº¥y": 7576,
      "ĠnÃ©": 7577,
      "ĠIN": 7578,
      "ĠAss": 7579,
      "ĠYamaha": 7580,
      "á»ª": 7581,
      "ĠcÃ²i": 7582,
      "BTC": 7583,
      "Trao": 7584,
      "Long": 7585,
      "Ġsá»§a": 7586,
      "ĠTao": 7587,
      "HLV": 7588,
      "tinh": 7589,
      "ĠbÆ°á»Ľm": 7590,
      "ĠAuto": 7591,
      "Ġsup": 7592,
      "ilding": 7593,
      "ĠTháºŃp": 7594,
      "off": 7595,
      "Ġbáº©y": 7596,
      "ĠxÃ¡t": 7597,
      "Ġhá»ķng": 7598,
      "ĠHá»Ļp": 7599,
      "order": 7600,
      "VÃ²ng": 7601,
      "ĠphÆ°á»Ľc": 7602,
      "Æ¯á»¢C": 7603,
      "Man": 7604,
      "ival": 7605,
      "Ġlim": 7606,
      "Ġtá»³": 7607,
      "Index": 7608,
      "Ġthiáº¿p": 7609,
      "ĠkÃ©t": 7610,
      "board": 7611,
      "ĠStreet": 7612,
      "ĠCD": 7613,
      "BÃ³ng": 7614,
      "tions": 7615,
      "ĠnhÅ©": 7616,
      "Ġhormone": 7617,
      "cess": 7618,
      "ling": 7619,
      "Ġchen": 7620,
      "ĠGÃ³i": 7621,
      "ĠMini": 7622,
      "ĠArch": 7623,
      "Ġná»Ļ": 7624,
      "amb": 7625,
      "Ġáº§m": 7626,
      "phÃºt": 7627,
      "htm": 7628,
      "TW": 7629,
      "Ġnoi": 7630,
      "Ġshowbiz": 7631,
      "Song": 7632,
      "ĠMTTQ": 7633,
      "ĠPage": 7634,
      "ĠFu": 7635,
      "cu": 7636,
      "Â°": 7637,
      "Ġion": 7638,
      "Ĺı": 7639,
      "Ä¨": 7640,
      "ĠPhu": 7641,
      "ĠIraq": 7642,
      "Ġandroid": 7643,
      "ĠngÆ¡": 7644,
      "ĠPort": 7645,
      "UA": 7646,
      "Ġthá»ĳt": 7647,
      "ĠHiÃªn": 7648,
      "Ġâľ": 7649,
      "uters": 7650,
      "âĻ": 7651,
      "Ġmo": 7652,
      "ĠChina": 7653,
      "SiÃªu": 7654,
      "Ġráº£i": 7655,
      "ĠMark": 7656,
      "tÆ°Æ¡ng": 7657,
      "Shop": 7658,
      "ĠVH": 7659,
      "ĠOs": 7660,
      "ÃĬM": 7661,
      "Ġ77": 7662,
      "urs": 7663,
      "vel": 7664,
      "ala": 7665,
      "VÅ©": 7666,
      "Â®": 7667,
      "ĠÄĲo": 7668,
      "ĠLÄ©nh": 7669,
      "Báº¯c": 7670,
      "IG": 7671,
      "ĠBL": 7672,
      "ĠXÃ©t": 7673,
      "ĠnhÃºng": 7674,
      "uba": 7675,
      "aphone": 7676,
      "yan": 7677,
      "LINE": 7678,
      "ĠnhÃ¡t": 7679,
      "ĠVisa": 7680,
      "ĠxÃ´n": 7681,
      "ĠLÃ¢n": 7682,
      "ÃĵA": 7683,
      "ĠMO": 7684,
      "¨NG": 7685,
      "Ġxáº»": 7686,
      "Ġphá»ĳt": 7687,
      "ĠTáº£": 7688,
      "ĠCá»§": 7689,
      "AGL": 7690,
      "BET": 7691,
      "ChÃºc": 7692,
      "Ġ//": 7693,
      "nes": 7694,
      "Ġ225": 7695,
      "81": 7696,
      "mon": 7697,
      "ĠJan": 7698,
      "irst": 7699,
      "verter": 7700,
      "lad": 7701,
      "Ġná»Ľi": 7702,
      "dinh": 7703,
      "Ġtá»īa": 7704,
      "ĠsuÃ´n": 7705,
      "Ġkhá»ī": 7706,
      "ĠNiá»ĩm": 7707,
      "ĠNgon": 7708,
      "ĠÄĲáº¦U": 7709,
      "Ġki": 7710,
      "right": 7711,
      "Ġnung": 7712,
      "ĠJose": 7713,
      "ipedia": 7714,
      "ĠmÃŃa": 7715,
      "ĠPDF": 7716,
      "ĠFire": 7717,
      "Ġvip": 7718,
      "Ġpart": 7719,
      "ĠHá»£i": 7720,
      "ĠÄĲáºŃu": 7721,
      "emo": 7722,
      "Ġtá»¥t": 7723,
      "ager": 7724,
      "Ġnáº¥y": 7725,
      "ibank": 7726,
      "Ġmin": 7727,
      "Ġ84": 7728,
      "nd": 7729,
      "ffet": 7730,
      "oph": 7731,
      "ĠVina": 7732,
      "ÄĲá»Ļng": 7733,
      "Nháº±m": 7734,
      "ĠQUAN": 7735,
      "den": 7736,
      "ĠTU": 7737,
      "Ġhá»§": 7738,
      "ĠMá»«ng": 7739,
      "ĠRam": 7740,
      "Chuáº©n": 7741,
      "Váº¥n": 7742,
      "ĠInf": 7743,
      "ira": 7744,
      "ĠLim": 7745,
      "ÃĢO": 7746,
      "Ġ365": 7747,
      "Ġseries": 7748,
      "ingroup": 7749,
      "ĠMore": 7750,
      "RL": 7751,
      "Ġ96": 7752,
      "Buá»ķi": 7753,
      "Ġbáº»": 7754,
      "ĠTrans": 7755,
      "ĠTuá»ĩ": 7756,
      "ĠÆ¡": 7757,
      "ict": 7758,
      "bu": 7759,
      "Ġbalo": 7760,
      "cÃ¡i": 7761,
      "xá»ķ": 7762,
      "ĠLou": 7763,
      "ĠNguyen": 7764,
      "ĠHáº¯c": 7765,
      "ĠmÃºt": 7766,
      "ĠnÃºm": 7767,
      "ÃŃp": 7768,
      "ĠTrá»¥": 7769,
      "ÃĤU": 7770,
      "ĠSá»ķ": 7771,
      "View": 7772,
      "Ġsiáº¿t": 7773,
      "Ġgáº·t": 7774,
      "Ġpoly": 7775,
      "ÃģN": 7776,
      "iff": 7777,
      "weet": 7778,
      "ĠChiÃªu": 7779,
      "tream": 7780,
      "ĠPHáº¨M": 7781,
      "ĠReuters": 7782,
      "Ġmáº«n": 7783,
      "ĠSá»Ĳ": 7784,
      "ĠOpen": 7785,
      "QH": 7786,
      "we": 7787,
      "aker": 7788,
      "cap": 7789,
      "ĠTá»ĭch": 7790,
      "Ġthuá»Ł": 7791,
      "ĠbÃºp": 7792,
      "phi": 7793,
      "Ġtáº·c": 7794,
      "ĠCHI": 7795,
      "ĠCentral": 7796,
      "oshop": 7797,
      "Ġ140": 7798,
      "ikipedia": 7799,
      "1000": 7800,
      "Ġbáº§y": 7801,
      "icle": 7802,
      "ĠNÄĤM": 7803,
      "ĠÄĳá»Ļn": 7804,
      "ĠÃį": 7805,
      "Ġthá»ģ": 7806,
      "Æ°Æ¡u": 7807,
      "ĠJong": 7808,
      "Káº¿": 7809,
      "ĠTK": 7810,
      "istics": 7811,
      "á»®NG": 7812,
      "Â«": 7813,
      "Ġbuá»ĳt": 7814,
      "ander": 7815,
      "TCP": 7816,
      "É´": 7817,
      "Da": 7818,
      "ÌĤ": 7819,
      "ubet": 7820,
      "Ġshowroom": 7821,
      "ĠðŁĺ": 7822,
      "ior": 7823,
      "Ġloan": 7824,
      "Ġdis": 7825,
      "XX": 7826,
      "Ġsays": 7827,
      "Ġship": 7828,
      "ĠLÃ´i": 7829,
      "Ġnuá»ĳi": 7830,
      "MO": 7831,
      "âĨ": 7832,
      "á»Ĵ": 7833,
      "nghi": 7834,
      "ĠBal": 7835,
      "ĠLÃĿ": 7836,
      "áºłO": 7837,
      "Ã¢t": 7838,
      "âĸº": 7839,
      "Dáº§u": 7840,
      "ison": 7841,
      "tho": 7842,
      "CÃĶNG": 7843,
      "ĠOl": 7844,
      "Ġstart": 7845,
      "Háº¡": 7846,
      "Ġngáº£": 7847,
      "Ġtrá»ĩt": 7848,
      "ĠÄĲÃģ": 7849,
      "ĠDon": 7850,
      "ender": 7851,
      "Æ¯á»¢NG": 7852,
      "ĠTi": 7853,
      "ĠSÃłn": 7854,
      "ĠKo": 7855,
      "Kháº£": 7856,
      "ĠTor": 7857,
      "vÃ¬": 7858,
      "Ġhave": 7859,
      "Ġlá»Ŀ": 7860,
      "ves": 7861,
      "udi": 7862,
      "Vay": 7863,
      "VÆ°Æ¡ng": 7864,
      "no": 7865,
      "ĠMá»ļI": 7866,
      "Ġphiáº¿n": 7867,
      "ĠCáº§m": 7868,
      "ĠCAO": 7869,
      "ĠÄĲá»ĳc": 7870,
      "Tháº¥y": 7871,
      "aint": 7872,
      "VC": 7873,
      "ets": 7874,
      "under": 7875,
      "ĠItalia": 7876,
      "ks": 7877,
      "ĠÄĲK": 7878,
      "XÃ£": 7879,
      "ms": 7880,
      "MÃł": 7881,
      "zo": 7882,
      "ĠPay": 7883,
      "Ġ123": 7884,
      "ViÃªn": 7885,
      "Ġid": 7886,
      "pháº£i": 7887,
      "iko": 7888,
      "bong": 7889,
      "ĠUá»·": 7890,
      "nhÆ°ng": 7891,
      "Ġ450": 7892,
      "Ġtrau": 7893,
      "ĠCard": 7894,
      "ThÆ°": 7895,
      "GiÃºp": 7896,
      "nology": 7897,
      "Ġgiáº¥m": 7898,
      "ÄĲa": 7899,
      "burg": 7900,
      "Ġtá»§y": 7901,
      "ĠVáº«n": 7902,
      "ĠâĢº": 7903,
      "????": 7904,
      "ĠDá»¥c": 7905,
      "Ġtáº©m": 7906,
      "ĠNN": 7907,
      "Ġ2002": 7908,
      "Ġngáº¡o": 7909,
      "ĠÄĳá»ĳm": 7910,
      "ĠngÃ³i": 7911,
      "120": 7912,
      "May": 7913,
      "Ġdá»©a": 7914,
      "ĠMazda": 7915,
      "Ġsale": 7916,
      "Ġkha": 7917,
      "ĠRich": 7918,
      "Ġ1990": 7919,
      "TrÃ²": 7920,
      "umi": 7921,
      "Ġtá»ĳng": 7922,
      "ĠTá»Ľi": 7923,
      "ĠVÄĤN": 7924,
      "ĠTRÆ¯á»ľNG": 7925,
      "ĠThÃ¬n": 7926,
      "ĠGá»įi": 7927,
      "uo": 7928,
      "Ġthá»¥c": 7929,
      "ĠKhá»ıe": 7930,
      "raft": 7931,
      "ĠsÃºp": 7932,
      "lette": 7933,
      "Mar": 7934,
      "ĠHáº¡ng": 7935,
      "Ġ$(": 7936,
      "ĠTháº¡c": 7937,
      "ĠxoÃłi": 7938,
      "ez": 7939,
      "chá»ĭ": 7940,
      "ĠBel": 7941,
      "TK": 7942,
      "Ġcopy": 7943,
      "Ġná»ī": 7944,
      "Ġ92": 7945,
      "ĠDig": 7946,
      "ĠÄĲáº¥ng": 7947,
      "ĠNgÆ°u": 7948,
      "key": 7949,
      "ĠHáº£o": 7950,
      "Ġ73": 7951,
      "ĠGiá»¯a": 7952,
      "ĠtrÃ³c": 7953,
      "sao": 7954,
      "ĠTower": 7955,
      "ĠhÃ¢n": 7956,
      "ĠDá»±a": 7957,
      "ĠNV": 7958,
      "ĠXÆ°Æ¡ng": 7959,
      "ĠFootball": 7960,
      "ĠBMW": 7961,
      "Há»ıi": 7962,
      "Ñģ": 7963,
      "ĠRi": 7964,
      "ĠVá»¤": 7965,
      "UM": 7966,
      "ĠPhÃ¡": 7967,
      "Ġ2030": 7968,
      "thÃłnh": 7969,
      "Ġmá»³": 7970,
      "erson": 7971,
      "ĠGIA": 7972,
      "Ġkhang": 7973,
      "Ġdau": 7974,
      "list": 7975,
      "ĠcÃły": 7976,
      "ĠCollagen": 7977,
      "ĠTan": 7978,
      "ĠVá»įng": 7979,
      "content": 7980,
      "ĠGeor": 7981,
      "92": 7982,
      "ĠTrade": 7983,
      "Ġdáº«u": 7984,
      "ĠPha": 7985,
      "MÆ¡": 7986,
      "ĠÄĳÃ¨o": 7987,
      "ĠÄĳáº½": 7988,
      "Ġ028": 7989,
      "Ġáº£": 7990,
      "its": 7991,
      "Chá»©ng": 7992,
      "Ġren": 7993,
      "Ġná»ĥ": 7994,
      "ĠHer": 7995,
      "ĠlÃ¡ch": 7996,
      "eland": 7997,
      "Tháº§y": 7998,
      "Ġ2001": 7999,
      "Ġyáº¿m": 8000,
      "ÑĢ": 8001,
      "ĠchÃ¨o": 8002,
      "SA": 8003,
      "ĠTiá»ĩn": 8004,
      "ken": 8005,
      "long": 8006,
      "ĠGian": 8007,
      "ĠDA": 8008,
      "ĠNhiá»ĩm": 8009,
      "ĠÄĲá»ģn": 8010,
      "ĠPlaza": 8011,
      "BL": 8012,
      "Ġhá»ĳt": 8013,
      "Ġfanpage": 8014,
      "subishi": 8015,
      "Tráº£i": 8016,
      "âĢĶâĢĶâĢĶâĢĶ": 8017,
      "Ġsáº¡t": 8018,
      "ĠHung": 8019,
      "ÄĲáº¡o": 8020,
      "NgÃłnh": 8021,
      "Ġtáº¥p": 8022,
      "bai": 8023,
      "yÃªn": 8024,
      "ĠLuyá»ĩn": 8025,
      "sá»±": 8026,
      "Ġmix": 8027,
      "ÃĵNG": 8028,
      "Ġå": 8029,
      "ĠpH": 8030,
      "ĠYu": 8031,
      "ĠCá»©u": 8032,
      "ĠrÃ³t": 8033,
      "Ã²e": 8034,
      "ĠkhÃ³e": 8035,
      "Ġnail": 8036,
      "ĠTravel": 8037,
      "ÄĲÃªm": 8038,
      "ĠSUV": 8039,
      "ĠLight": 8040,
      "93": 8041,
      "Ġnu": 8042,
      "ĠlÅ©ng": 8043,
      "Ngá»įc": 8044,
      "ÃģI": 8045,
      "ĠSur": 8046,
      "ĠnhÃŃu": 8047,
      "ĠDell": 8048,
      "NgÃ´i": 8049,
      "Express": 8050,
      "Ġtanh": 8051,
      "Ġmá»ĳt": 8052,
      "ĠtrÃ¹": 8053,
      "ĠUyá»ĥn": 8054,
      "NÃ¢ng": 8055,
      "Ġpháº¥t": 8056,
      "web": 8057,
      "Ġkhong": 8058,
      "KhÃ³a": 8059,
      "Ġif": 8060,
      "ĠVinpearl": 8061,
      "ĠHá»ĺI": 8062,
      "97": 8063,
      "ĠBuá»ķi": 8064,
      "ĠChÃłng": 8065,
      "Triá»ĩu": 8066,
      "Quáº£": 8067,
      "ric": 8068,
      "Ġcomments": 8069,
      "tron": 8070,
      "Ġhá»Ŀ": 8071,
      "yc": 8072,
      "ĠTel": 8073,
      "ĠCPU": 8074,
      "GiÃ¡m": 8075,
      "XÃ©t": 8076,
      "tá»©c": 8077,
      "ĠPT": 8078,
      "lott": 8079,
      "ĠSS": 8080,
      "ĠSand": 8081,
      "ĠQUY": 8082,
      "ovic": 8083,
      "Ġbiáº¿ng": 8084,
      "ĠTur": 8085,
      "ĠTAND": 8086,
      "ĠFed": 8087,
      "enger": 8088,
      "ĠNá»ķi": 8089,
      "ĠTráº§m": 8090,
      "âľħ": 8091,
      "ĠBill": 8092,
      "aku": 8093,
      "ĠBook": 8094,
      "Ġkhoáº¯n": 8095,
      "ĠBÃłng": 8096,
      "ĠCÃ¢n": 8097,
      "ĠVictor": 8098,
      "chu": 8099,
      "Ġvá»¯a": 8100,
      "Quyáº¿t": 8101,
      "ĠXI": 8102,
      "Ġlon": 8103,
      "Ġsáº¥u": 8104,
      "mark": 8105,
      "Ġváº¥p": 8106,
      "Ġsáº£ng": 8107,
      "âĢ¦âĢ¦âĢ¦âĢ¦âĢ¦âĢ¦âĢ¦âĢ¦": 8108,
      "ĠHAGL": 8109,
      "ĠDÆ°": 8110,
      "Mang": 8111,
      "ĠPanasonic": 8112,
      "ĠÄĳáº£": 8113,
      "ĠphÆ°á»£ng": 8114,
      "ĠFace": 8115,
      "Äĳá»ĳi": 8116,
      "jet": 8117,
      "Ġlá»ĳc": 8118,
      "emy": 8119,
      "els": 8120,
      "lÃ´": 8121,
      "Ġbanh": 8122,
      "quoc": 8123,
      "ĠNGHIá»ĨP": 8124,
      "ŃĲ": 8125,
      "Ġvá»Ŀ": 8126,
      "ĠNor": 8127,
      "ĠBox": 8128,
      "ston": 8129,
      "ĠTrÃ¢m": 8130,
      "Ġhoáº¡n": 8131,
      "Cáº¥u": 8132,
      "ĠMeg": 8133,
      "quy": 8134,
      "ĠvÃły": 8135,
      "asa": 8136,
      "tre": 8137,
      "ĠTOP": 8138,
      "cal": 8139,
      "ĠTÆ°á»£ng": 8140,
      "soi": 8141,
      "ĠnghÃªnh": 8142,
      "ÄĲÃ¡": 8143,
      "ĠVingroup": 8144,
      "Ġphá»¥ng": 8145,
      "ĠGran": 8146,
      "Ġhand": 8147,
      "aily": 8148,
      "ĠkhoÃ¡t": 8149,
      "kok": 8150,
      "ĠÄĲáºłI": 8151,
      "ĠthiÃªu": 8152,
      "Ġtoa": 8153,
      "revious": 8154,
      "BN": 8155,
      "ÃĢNG": 8156,
      "Dr": 8157,
      "una": 8158,
      "ĠShopee": 8159,
      "Ġcá»Ńu": 8160,
      "ĠAtletico": 8161,
      "Ġbá»ĵng": 8162,
      "ĠÃª": 8163,
      "Ġ1999": 8164,
      "gin": 8165,
      "ĠTá»«ng": 8166,
      "ĠHÃ¨": 8167,
      "ĠCafe": 8168,
      "ĠSE": 8169,
      "ĠON": 8170,
      "ĠOcean": 8171,
      "ĠLÃĢM": 8172,
      "ĠnghÃłnh": 8173,
      "ĠYoung": 8174,
      "You": 8175,
      "hoc": 8176,
      "ĠCore": 8177,
      "ati": 8178,
      "EF": 8179,
      "LÃ£nh": 8180,
      "zym": 8181,
      "ĠbÃ¨n": 8182,
      "Ġgram": 8183,
      "Hiá»ĩu": 8184,
      "col": 8185,
      "ĠVTC": 8186,
      "999": 8187,
      "Cá»©": 8188,
      "HÃłn": 8189,
      "gan": 8190,
      "Ġcup": 8191,
      "Ð¾Ð": 8192,
      "online": 8193,
      "ĠÃĶn": 8194,
      "ĠVilla": 8195,
      "ĠrÃ£nh": 8196,
      "ordred": 8197,
      "count": 8198,
      "CCC": 8199,
      "ĠhÃ³c": 8200,
      "ÄĲá»Ŀi": 8201,
      "add": 8202,
      "ĠTá»ª": 8203,
      "hu": 8204,
      "email": 8205,
      "ĠInn": 8206,
      "Ġur": 8207,
      "ĠKhÃ´i": 8208,
      "px": 8209,
      "å½": 8210,
      "ĠsÃłi": 8211,
      "ĠDay": 8212,
      "ika": 8213,
      "quang": 8214,
      "ĠSeries": 8215,
      "ĠMA": 8216,
      "ĠChÃło": 8217,
      "ĠForm": 8218,
      "HoÃłn": 8219,
      "Ġlive": 8220,
      "Ġsty": 8221,
      "Ġpháº«n": 8222,
      "sex": 8223,
      "ids": 8224,
      "Ġ).": 8225,
      "BB": 8226,
      "Vá»£": 8227,
      "ĠTrÃłm": 8228,
      "ĠFun": 8229,
      "ĠHigh": 8230,
      "ĠSO": 8231,
      "ĠVá»ļI": 8232,
      "hang": 8233,
      "hot": 8234,
      "ĠCá»±u": 8235,
      "ĠLat": 8236,
      "ĠTÃºi": 8237,
      "TTg": 8238,
      "Ġteen": 8239,
      "Ġngáº©n": 8240,
      "Ġread": 8241,
      "ĠTRÃĮNH": 8242,
      "Bl": 8243,
      "ĠKáº»": 8244,
      "ray": 8245,
      "ĠxoÃ¡y": 8246,
      "ĠphÆ°á»£t": 8247,
      "ĠUniversity": 8248,
      "ĠvÃ¡": 8249,
      "trol": 8250,
      "eek": 8251,
      "NQ": 8252,
      "XÃ¡c": 8253,
      "thiáº¿t": 8254,
      "ĠHÃło": 8255,
      "ĠPoly": 8256,
      "Ġwill": 8257,
      "SÃ¡ch": 8258,
      "ĠgÃ²n": 8259,
      "Ġhost": 8260,
      "á»¦": 8261,
      "ref": 8262,
      "ĠNokia": 8263,
      "ĠMir": 8264,
      "->": 8265,
      "Ġnhá»§": 8266,
      "Thiáº¿u": 8267,
      "ĠXÃ¡n": 8268,
      "ĠCel": 8269,
      "ĠMÃ£o": 8270,
      "ift": 8271,
      "ĠVinaphone": 8272,
      "EU": 8273,
      "âĢ¦..": 8274,
      "áº®C": 8275,
      "nhan": 8276,
      "Ã³e": 8277,
      "dung": 8278,
      "ĠTÃ¡t": 8279,
      "Äĥk": 8280,
      "Ġkhoanh": 8281,
      "ĠKháº©u": 8282,
      "ĠKhuÃª": 8283,
      "%),": 8284,
      "Ġáº¥u": 8285,
      "ĠmiÃªn": 8286,
      "Ġsá»įc": 8287,
      "ÃĶN": 8288,
      "Ġvung": 8289,
      "ĠBlock": 8290,
      "Ġcuá»ĳng": 8291,
      "ĠVen": 8292,
      "ĠRock": 8293,
      "Ġ87": 8294,
      "ĠKá»": 8295,
      "Ġ97": 8296,
      "ĠKl": 8297,
      "ĠFLC": 8298,
      "apan": 8299,
      "ĠTÃ¡o": 8300,
      "ĠHuyáº¿t": 8301,
      "Tranh": 8302,
      "ents": 8303,
      "Ġserver": 8304,
      "HN": 8305,
      "cÃ²n": 8306,
      "Linh": 8307,
      "Ġtech": 8308,
      "âĢ¦,": 8309,
      "Pháº¡m": 8310,
      "SÆ¡n": 8311,
      "ĠCat": 8312,
      "Ġhoc": 8313,
      "oucher": 8314,
      "Æ°á»Ľn": 8315,
      "ĠGel": 8316,
      "Ġsáº¡m": 8317,
      "ĠCode": 8318,
      "ĠBá»ı": 8319,
      "\")": 8320,
      "Ġcháº£nh": 8321,
      "ahoo": 8322,
      ":ãĢĤ": 8323,
      "ĠCL": 8324,
      "une": 8325,
      "QuáºŃn": 8326,
      "ĠResid": 8327,
      "ĠLÃ£ng": 8328,
      "???": 8329,
      "ius": 8330,
      "nal": 8331,
      "ĠNHÃĤN": 8332,
      "++": 8333,
      "ĠLive": 8334,
      "other": 8335,
      "Ġtháº¡c": 8336,
      "Ġláº¹": 8337,
      "ĠQuyÃªn": 8338,
      "ĠTHIáº¾T": 8339,
      "Báº¡ch": 8340,
      "vice": 8341,
      "ĠÃºp": 8342,
      "ĠFile": 8343,
      "Hay": 8344,
      "Tiáº¿t": 8345,
      "bÃ¡n": 8346,
      "Ġthá»ģm": 8347,
      "ĠPháº£n": 8348,
      "ĠvnÄĳ": 8349,
      "ping": 8350,
      "Ġnháº¥c": 8351,
      "ĠDragon": 8352,
      "Ġxsmb": 8353,
      "BM": 8354,
      "ThÃŃch": 8355,
      "ChÃ¢n": 8356,
      "Ġoffline": 8357,
      "Sá»ĳng": 8358,
      "Ġmáº§u": 8359,
      "Ġngáº«m": 8360,
      "ĠThom": 8361,
      "Ġ888": 8362,
      "ĠGiá»¯": 8363,
      "Ġsoc": 8364,
      "ibaba": 8365,
      "ĠThá»Ń": 8366,
      "ĠComm": 8367,
      "how": 8368,
      "ute": 8369,
      "ĠKÃ¨o": 8370,
      "ĠrÃ¹a": 8371,
      "ĠThÃ´i": 8372,
      "VA": 8373,
      "Ġdáº¥n": 8374,
      "ĠGlobal": 8375,
      "Ġ91": 8376,
      "ĠCNC": 8377,
      "Máº¹o": 8378,
      "ĠLaser": 8379,
      "Huyá»ĩn": 8380,
      "ĠKiá»ĩn": 8381,
      "ĠGÃ³c": 8382,
      "Bet": 8383,
      "Uá»ĳng": 8384,
      "hÃ¬nh": 8385,
      "káº¿t": 8386,
      "ways": 8387,
      "ĠEp": 8388,
      "ĠNGÆ¯á»ľI": 8389,
      "Ġlá»¯": 8390,
      "Ġ71": 8391,
      "94": 8392,
      "ĠÄĲÆ°a": 8393,
      "ĠRá»Ńa": 8394,
      "Ġcoin": 8395,
      "lan": 8396,
      "ĠIp": 8397,
      "reak": 8398,
      "ĠChrome": 8399,
      "IÃĬU": 8400,
      "tÃ´i": 8401,
      "ĠLiá»ĩt": 8402,
      "ĠOut": 8403,
      "ape": 8404,
      "ĠphÃ´i": 8405,
      "ĠBT": 8406,
      "Ġkali": 8407,
      "ĠDVD": 8408,
      "sáº½": 8409,
      "ĠLoa": 8410,
      "ĠXIII": 8411,
      "ĠFIFA": 8412,
      "info": 8413,
      "ĠAug": 8414,
      "ĠThuyáº¿t": 8415,
      "eymar": 8416,
      "mund": 8417,
      "view": 8418,
      "âĿ": 8419,
      "ĠEco": 8420,
      "ÄĳÃ¡nh": 8421,
      "ĠAct": 8422,
      "Ġke": 8423,
      "ĠMINH": 8424,
      "otton": 8425,
      "Ġngáº¥m": 8426,
      "ĠCÃłng": 8427,
      "ĠSum": 8428,
      "Äĳáº¡i": 8429,
      "Ġlá»ģu": 8430,
      "Ġlá»¥y": 8431,
      "Ġtá»¥y": 8432,
      "Ġxá»ĩ": 8433,
      "ĠMáº§m": 8434,
      "Ġ82": 8435,
      "Khoa": 8436,
      "df": 8437,
      "ĠTáº¡ng": 8438,
      "Ġtuyen": 8439,
      "Ġthá»ĳn": 8440,
      "Khá»Łi": 8441,
      "FI": 8442,
      "sá»ĳng": 8443,
      "KhÃ¡c": 8444,
      "ĠThuá»·": 8445,
      "egas": 8446,
      "HA": 8447,
      "NS": 8448,
      "Vin": 8449,
      "Ġ^": 8450,
      "Ġgá»įt": 8451,
      "amine": 8452,
      "Ġgiá»¥": 8453,
      "ĠThuÃª": 8454,
      "ĠMichael": 8455,
      "Ġ....": 8456,
      "Ġ74": 8457,
      "Ġok": 8458,
      "ĠsÃło": 8459,
      "amond": 8460,
      "ĠTáº§m": 8461,
      "Truyá»ģn": 8462,
      "ĠOK": 8463,
      "ĠSk": 8464,
      "ĠTrá»£": 8465,
      "Ġkey": 8466,
      "ÄĲÃ¡ng": 8467,
      "ollow": 8468,
      "ĠnhÃło": 8469,
      "edd": 8470,
      "ĠhÃ¨n": 8471,
      "ĠTrÃ£i": 8472,
      "ema": 8473,
      "zy": 8474,
      "ĠLCD": 8475,
      "ĠVer": 8476,
      "gar": 8477,
      "ĠngÃ¡n": 8478,
      "TráºŃn": 8479,
      "Ġcat": 8480,
      "ĠlÃ³c": 8481,
      "shine": 8482,
      "Ġtua": 8483,
      "Ġdep": 8484,
      "ĠtÃŃa": 8485,
      "BÃ©": 8486,
      "ĠVang": 8487,
      "file": 8488,
      "ĠPe": 8489,
      "ĠGV": 8490,
      "ĠDC": 8491,
      "ĠKey": 8492,
      "ĠPhÃª": 8493,
      "ĠJung": 8494,
      "EE": 8495,
      "ĠTrÃ¢n": 8496,
      "ĠHall": 8497,
      "Giá»ĳng": 8498,
      "****": 8499,
      "Fast": 8500,
      "nguyen": 8501,
      "ĠNGÃĢY": 8502,
      "ĠHarry": 8503,
      "ĠKB": 8504,
      "ĠRÆ°á»£u": 8505,
      "Cha": 8506,
      "oint": 8507,
      "ĠvÄĥng": 8508,
      "ĠQuÃł": 8509,
      "ĠÄĲÃ´n": 8510,
      "ĠChá»¯a": 8511,
      "ĠAD": 8512,
      "Ġwork": 8513,
      "Ġind": 8514,
      "ĠNho": 8515,
      "ved": 8516,
      "ĠÃ¹n": 8517,
      "ĠLis": 8518,
      "ĠSC": 8519,
      "Ġsub": 8520,
      "ĠHuÃ¢n": 8521,
      "áº³m": 8522,
      "ĠRobert": 8523,
      "SP": 8524,
      "æĹ": 8525,
      "Ġbá»©t": 8526,
      "ĠGolf": 8527,
      "seo": 8528,
      "Ġseo": 8529,
      "Re": 8530,
      "],": 8531,
      "ĠsÃ¡o": 8532,
      "ÄĲÃ´ng": 8533,
      "ous": 8534,
      "ĠDT": 8535,
      "bia": 8536,
      "ĠGet": 8537,
      "ating": 8538,
      "Äĳi": 8539,
      "lywood": 8540,
      "ĠÄĲau": 8541,
      "ĠColor": 8542,
      "ĠbÃ¡i": 8543,
      "ĠCá»±": 8544,
      "ĠPol": 8545,
      "Giai": 8546,
      "cha": 8547,
      "pot": 8548,
      "ĠNháº±m": 8549,
      "ĠLife": 8550,
      "ĠSai": 8551,
      "PhÃº": 8552,
      "ĠâĢ¦.": 8553,
      "bÃłi": 8554,
      "ĠIT": 8555,
      "ther": 8556,
      "ĠsuÃ½t": 8557,
      "ĠRÄĥng": 8558,
      "áºłT": 8559,
      "ĠtrÄĥn": 8560,
      "ĠRanh": 8561,
      "...]": 8562,
      "LÆ°á»£t": 8563,
      "há»įc": 8564,
      "ĠTuyá»ģn": 8565,
      "ĠCáº¤P": 8566,
      "phu": 8567,
      "ĠDá»±ng": 8568,
      "ker": 8569,
      "Ġtháº£y": 8570,
      "ChÆ¡i": 8571,
      "club": 8572,
      "[/": 8573,
      "Ġbá»ĭt": 8574,
      "ĠPHáº¦N": 8575,
      "Máº¥y": 8576,
      "Ġtháº¯m": 8577,
      "ĠThiÃªm": 8578,
      "ĠPart": 8579,
      "HÃ£ng": 8580,
      "ĠÃºt": 8581,
      "Ãµng": 8582,
      "led": 8583,
      "ould": 8584,
      "ĠTeam": 8585,
      "ĠSM": 8586,
      "ĠKT": 8587,
      "quáºŃn": 8588,
      "Vn": 8589,
      "ĠVir": 8590,
      "cháº¥t": 8591,
      "ĠSuá»ĳi": 8592,
      "ĠPhá»ĳi": 8593,
      "ugin": 8594,
      "âŀ": 8595,
      "ĠÄĲIá»ĨN": 8596,
      "ĠFlor": 8597,
      "ĠUng": 8598,
      "ĠNik": 8599,
      "ĠÄĲÃ¢u": 8600,
      "ila": 8601,
      "ĠCHÃļ": 8602,
      "ĠAndre": 8603,
      "Ġchoi": 8604,
      "Ġhan": 8605,
      "Ġpass": 8606,
      "ĠMáº¹o": 8607,
      "ĠJava": 8608,
      "PV": 8609,
      "åī": 8610,
      "ĠRem": 8611,
      "âľĶ": 8612,
      "Ġed": 8613,
      "ĠngÃłng": 8614,
      "giao": 8615,
      "ĠSerie": 8616,
      "Read": 8617,
      "dio": 8618,
      "rit": 8619,
      "ĠSkin": 8620,
      "reg": 8621,
      "ĠRet": 8622,
      "Biá»ĥu": 8623,
      "Láº¡i": 8624,
      "SV": 8625,
      "siÃªu": 8626,
      "Ġtnh": 8627,
      "anel": 8628,
      "ĠBáºłN": 8629,
      "ĠMak": 8630,
      "ĠXa": 8631,
      "Ġbá»ķn": 8632,
      "Ġitem": 8633,
      "eco": 8634,
      "ĠAk": 8635,
      "ĠNoel": 8636,
      "gov": 8637,
      "vÃŃ": 8638,
      "ĠAcid": 8639,
      "Ġart": 8640,
      "ĠhÃ¡o": 8641,
      "ĠNap": 8642,
      "================": 8643,
      "Di": 8644,
      "Kiá»ĥu": 8645,
      "RP": 8646,
      "HÆ°Æ¡ng": 8647,
      "raph": 8648,
      "ĠPCCC": 8649,
      "ection": 8650,
      "ĠÃģN": 8651,
      "Ġbá»į": 8652,
      "minh": 8653,
      "ĠPP": 8654,
      "ĠKe": 8655,
      "ĠâĢĿ": 8656,
      "ĠXÃ¡": 8657,
      "ĠId": 8658,
      "VáºŃn": 8659,
      "ĠNano": 8660,
      "ĠPu": 8661,
      "QuÃ¡n": 8662,
      "ĠTÃį": 8663,
      "ĠSK": 8664,
      "ĠModel": 8665,
      "________": 8666,
      "Dung": 8667,
      "PhÃŃa": 8668,
      "Äĳá»ĵng": 8669,
      "ista": 8670,
      "Æ°á»Ľu": 8671,
      "ĠLos": 8672,
      "ĠRub": 8673,
      "trÃªn": 8674,
      "ĠÆ¯á»Ľc": 8675,
      "Lo": 8676,
      "Ġváº§n": 8677,
      "Ġtáº¡c": 8678,
      "ĠKáº¾": 8679,
      "ĠTHá»Ĭ": 8680,
      "ĠVÄĲQG": 8681,
      "Next": 8682,
      "qui": 8683,
      "Ġmail": 8684,
      "ĠxÆ°á»Ľng": 8685,
      "ĠHit": 8686,
      "QuÃ¢n": 8687,
      "sá»Ńa": 8688,
      "Há»ĵi": 8689,
      "ĠmÃŃt": 8690,
      "exus": 8691,
      "ĠPle": 8692,
      "Bá»ĳ": 8693,
      "por": 8694,
      "Ġag": 8695,
      "ĠdÃ¨": 8696,
      "ĠSáº¯t": 8697,
      "ĠThuá»Ļt": 8698,
      "ĠMobi": 8699,
      "ret": 8700,
      "ĠMá»ĩnh": 8701,
      "made": 8702,
      "ĠUr": 8703,
      "Ġthong": 8704,
      "ĠxoÄĥn": 8705,
      "KÃŃnh": 8706,
      "Ġ]": 8707,
      "Ġngháº¹n": 8708,
      "ĠSá»©": 8709,
      "Ġráº¡ch": 8710,
      "=>": 8711,
      "SE": 8712,
      "ĠHT": 8713,
      "Ġ83": 8714,
      "ovo": 8715,
      "ĠClin": 8716,
      "ategor": 8717,
      "åĽ": 8718,
      "ĠLove": 8719,
      "ĠPHÃģP": 8720,
      "ĠÄĳÃ²": 8721,
      "ĠCC": 8722,
      "ĠHen": 8723,
      "ĠLá»¯": 8724,
      "ĠChang": 8725,
      "ĠTIáº¾T": 8726,
      "ĠIphone": 8727,
      "aa": 8728,
      "Ġ1800": 8729,
      "Ġváº£y": 8730,
      "ĠHom": 8731,
      "Ġbitcoin": 8732,
      "Ġcontent": 8733,
      "cÅ©ng": 8734,
      "met": 8735,
      "Ġmag": 8736,
      "Ġpage": 8737,
      "ĠMTV": 8738,
      "ĠVÄĲV": 8739,
      "ĠcÃ²": 8740,
      "Ġml": 8741,
      "igo": 8742,
      "ience": 8743,
      "bour": 8744,
      "Ġmá»©t": 8745,
      "ĠURL": 8746,
      "Ġworld": 8747,
      "uts": 8748,
      "Tuáº§n": 8749,
      "ĠtÃ¡ng": 8750,
      "This": 8751,
      "acom": 8752,
      "obi": 8753,
      "Ġkhuynh": 8754,
      "Plus": 8755,
      "Rá»ĵi": 8756,
      "á»ģm": 8757,
      "Ġdan": 8758,
      "doc": 8759,
      "ĠngÃ³": 8760,
      "ublic": 8761,
      "tact": 8762,
      "ĠtÃ¡nh": 8763,
      "Ġxui": 8764,
      "stal": 8765,
      "ĠÄĲá»ĩ": 8766,
      "ÄĳÆ°á»Ŀng": 8767,
      "ĠnÃ£": 8768,
      "ĠXE": 8769,
      "ĠXX": 8770,
      "rush": 8771,
      "Ġcarbon": 8772,
      "ĠWilli": 8773,
      "Táº§n": 8774,
      "ĠTe": 8775,
      "ĠLÃ²ng": 8776,
      "ĠRÃµ": 8777,
      "Viáº¿t": 8778,
      "asy": 8779,
      "ĠGiá»įng": 8780,
      "ĠNe": 8781,
      "Ġprotected": 8782,
      "2000": 8783,
      "TÄĲ": 8784,
      "Ġváº«y": 8785,
      "Ġbook": 8786,
      "ĠAFF": 8787,
      "ĠTHI": 8788,
      "UYá»Ĩ": 8789,
      "LE": 8790,
      "2023": 8791,
      "Phi": 8792,
      "ĠVai": 8793,
      "2005": 8794,
      "TÃ¢y": 8795,
      "Ġtt": 8796,
      "ĠxiÃªn": 8797,
      "ĠWatch": 8798,
      "Ġbá»«a": 8799,
      "ĠCream": 8800,
      "isco": 8801,
      "Ġamin": 8802,
      "TrÃ¡i": 8803,
      "Ġ240": 8804,
      "åīį": 8805,
      "cent": 8806,
      "Ġtiep": 8807,
      "Ġtrá»ķ": 8808,
      "ĠThá»Ľi": 8809,
      "Ġphen": 8810,
      "ĠnhÃ©t": 8811,
      "ĠTak": 8812,
      "ĠXÆ°á»Łng": 8813,
      "ĠZen": 8814,
      "JC": 8815,
      "NA": 8816,
      "táº¡i": 8817,
      "ĠÄĲá»īnh": 8818,
      ",âĢ¦.": 8819,
      "%).": 8820,
      "ĠUE": 8821,
      "ĠGuard": 8822,
      "nik": 8823,
      "ĠÃºy": 8824,
      "ĠThÃŃ": 8825,
      "Ġ247": 8826,
      "188": 8827,
      "Fanpage": 8828,
      "ĠBID": 8829,
      "Cá»ĳ": 8830,
      "ures": 8831,
      "ĠBÃģO": 8832,
      "Iá»ĤN": 8833,
      "nay": 8834,
      "ĠÄĲiá»ĩp": 8835,
      "ĠNhÃ¢m": 8836,
      "Ġgiun": 8837,
      "Ġxá»ĭn": 8838,
      "ĠBÃĮNH": 8839,
      "Ġnáº¯n": 8840,
      "ĠSar": 8841,
      "zi": 8842,
      "ĠCÃ¡n": 8843,
      "ĠÄĲoáº¡n": 8844,
      "Ãģnh": 8845,
      "ĠBangkok": 8846,
      "ĠLá»Ĺi": 8847,
      "ĠTrÃ¹ng": 8848,
      "ifone": 8849,
      "ĠCoffee": 8850,
      "ennis": 8851,
      "LA": 8852,
      "ÄĲau": 8853,
      "!!!!": 8854,
      "ĠbÃŃt": 8855,
      "ĠGÃ¡i": 8856,
      "atus": 8857,
      "ĠBrand": 8858,
      "ĠhÃ¡": 8859,
      "ĠCÆł": 8860,
      "ĠThÃ©p": 8861,
      "Tháº©m": 8862,
      "ftcode": 8863,
      "ĠTW": 8864,
      "Ġtone": 8865,
      "Ġchap": 8866,
      "Thá»ĭt": 8867,
      "ĠTÃĤM": 8868,
      "umber": 8869,
      "Download": 8870,
      "TÃ´": 8871,
      "ĠvÆ¡i": 8872,
      "ĠBÃģN": 8873,
      "Ser": 8874,
      "Ø§": 8875,
      "ĠbÃªnh": 8876,
      "ĠDub": 8877,
      "ju": 8878,
      "Ġmat": 8879,
      "ĠHyun": 8880,
      "Hi": 8881,
      "XB": 8882,
      "láº§n": 8883,
      "pop": 8884,
      "ĠngÃ¡y": 8885,
      "Ġnháº¹n": 8886,
      "ĠWon": 8887,
      "NET": 8888,
      "ĠvÃ£n": 8889,
      "ĠMer": 8890,
      "Trá»Ł": 8891,
      "aland": 8892,
      "Ġblockchain": 8893,
      "ĠEX": 8894,
      "Dá»±a": 8895,
      "ĠBÃ´ng": 8896,
      "ĠKINH": 8897,
      "ĠXII": 8898,
      "áº¢M": 8899,
      "XD": 8900,
      "dat": 8901,
      "ĠImp": 8902,
      "acy": 8903,
      "ental": 8904,
      "Ġdc": 8905,
      "oma": 8906,
      "ĠClick": 8907,
      "tÄĥng": 8908,
      "aga": 8909,
      "ĠmÃªnh": 8910,
      "Ġnao": 8911,
      "ĠCua": 8912,
      "ĠCuba": 8913,
      "ĠRec": 8914,
      "ĠWater": 8915,
      "real": 8916,
      "Ġsáº£o": 8917,
      "ĠTáº¾": 8918,
      "Ġlogic": 8919,
      "Ġtháº³m": 8920,
      "ĠLip": 8921,
      "ĠFA": 8922,
      "Ġfr": 8923,
      "äº": 8924,
      "uke": 8925,
      "Ġpar": 8926,
      "0000": 8927,
      "ÄĲá»ĭnh": 8928,
      "rogen": 8929,
      "iana": 8930,
      "Ġsexy": 8931,
      "Ġneo": 8932,
      "Khai": 8933,
      "ikes": 8934,
      "Comment": 8935,
      "çļ": 8936,
      "ĠmÆ°á»Ľt": 8937,
      "Ġ/>": 8938,
      "ution": 8939,
      "To": 8940,
      "ten": 8941,
      "Ġá»©": 8942,
      "Äģ": 8943,
      "Ġsearch": 8944,
      "ĠÄĲáº§m": 8945,
      "ĠSMS": 8946,
      "ĠBÃŃnh": 8947,
      "ĠCháº¥n": 8948,
      "ĠTRUNG": 8949,
      "Ġgiáº§y": 8950,
      "ĠCÃ¡nh": 8951,
      "ĠGháº¿": 8952,
      "Nháº¯c": 8953,
      "Xu": 8954,
      "ĠBas": 8955,
      "ĠNghiá»ĩm": 8956,
      "TOP": 8957,
      "ĠPalace": 8958,
      "OO": 8959,
      "ify": 8960,
      "Iá»ĦN": 8961,
      "Cá»ķng": 8962,
      "SS": 8963,
      "ĠphÃ¡ch": 8964,
      "ĠHá»ĵn": 8965,
      "ĠSung": 8966,
      "Ġ101": 8967,
      "ilm": 8968,
      "\"âĢ¦": 8969,
      "ĠhÃ¡n": 8970,
      "ĠmÃ¨": 8971,
      "ĠTá»³": 8972,
      "Vui": 8973,
      "Ġ\\": 8974,
      "Ġ000": 8975,
      "ĠOld": 8976,
      "Ġnguoi": 8977,
      "issan": 8978,
      "ĠBosch": 8979,
      "ni": 8980,
      "ĠtrÃ³i": 8981,
      "Nga": 8982,
      "ĠTIáº¾": 8983,
      "esl": 8984,
      "ĠRiver": 8985,
      "care": 8986,
      "Ġtáº¯n": 8987,
      "Ġngáº¡t": 8988,
      "Ġ1998": 8989,
      "ĠEnglish": 8990,
      "khá»§ng": 8991,
      "kn": 8992,
      "Ġhen": 8993,
      "ĠDá»ĬCH": 8994,
      "Ġcuoc": 8995,
      "áº¸P": 8996,
      "ĠcháºŃp": 8997,
      "ĠEsp": 8998,
      "ized": 8999,
      "Â©": 9000,
      "Ġhd": 9001,
      "ĠKhung": 9002,
      "On": 9003,
      "tien": 9004,
      "Ġnano": 9005,
      "ĠGiáº£ng": 9006,
      "Ġ1997": 9007,
      "ashion": 9008,
      "ĠMitsubishi": 9009,
      "Ġháº¡m": 9010,
      "pháº§n": 9011,
      "ĠThÃ¡c": 9012,
      "ĠnÃ³c": 9013,
      "Æ¯á»ļNG": 9014,
      "shi": 9015,
      "ĠTang": 9016,
      "ĠrÆ¡m": 9017,
      "ĠliÃªu": 9018,
      "yle": 9019,
      "ĠMet": 9020,
      "ĠGiÃły": 9021,
      "ibook": 9022,
      "Ġol": 9023,
      "ĠOk": 9024,
      "ĠCá»Ķ": 9025,
      "350": 9026,
      "Ġyoutube": 9027,
      "round": 9028,
      "Ġhá»ĳc": 9029,
      "ATO": 9030,
      "ĠthÃł": 9031,
      "ĠBÆ°u": 9032,
      "ĠKáº¾T": 9033,
      "Ġkhuáº¿ch": 9034,
      "ortmund": 9035,
      "Ghi": 9036,
      "itor": 9037,
      "ĠCÄĲV": 9038,
      "Ġmá»įt": 9039,
      "ĠsÃ²": 9040,
      "ĠCF": 9041,
      "ĠBol": 9042,
      "ĠBTS": 9043,
      "ĠPas": 9044,
      "apixel": 9045,
      "ĠTá»Ķ": 9046,
      "Ġvar": 9047,
      "ĠÃįt": 9048,
      "ĠPHÃĴNG": 9049,
      "Ġ1995": 9050,
      "Ġcorona": 9051,
      "Diá»ĩp": 9052,
      "ĠgÃło": 9053,
      "ĠPac": 9054,
      "Ġ1080": 9055,
      "ĠTuÃ¢n": 9056,
      "ĠMur": 9057,
      "ChÄĥm": 9058,
      "ĠDesign": 9059,
      "blog": 9060,
      "ĠABS": 9061,
      "Ġ1996": 9062,
      "amilk": 9063,
      "ĠRap": 9064,
      "Ġbá»Ľi": 9065,
      "ĠNá»ķ": 9066,
      "ĠPVC": 9067,
      "ĠBur": 9068,
      "ĠÄĲÆ°Æ¡ng": 9069,
      "Ġcá»¥t": 9070,
      "pm": 9071,
      "áº°": 9072,
      "Ra": 9073,
      "SÃ¢n": 9074,
      "ĠAgr": 9075,
      "ĠGiáº£n": 9076,
      "ĠÄĲá»ĴNG": 9077,
      "Há»ĵng": 9078,
      "cow": 9079,
      "ule": 9080,
      "Ġmiá»ĩt": 9081,
      "ĠSá»¬": 9082,
      "ĠJoe": 9083,
      "tis": 9084,
      "Ġquai": 9085,
      "Triá»ĥn": 9086,
      "witch": 9087,
      "ĠCTCP": 9088,
      "ĠMS": 9089,
      "Previous": 9090,
      "Tháº»": 9091,
      "ĠhÆ°Æ¡u": 9092,
      "ĠFe": 9093,
      "Sáº½": 9094,
      "liÃªn": 9095,
      "Ġtrá»ı": 9096,
      "ĠKai": 9097,
      "tuáº§n": 9098,
      "Fone": 9099,
      "ĠCáº¯t": 9100,
      "ĠHappy": 9101,
      "ĠhÃ²m": 9102,
      "ĠnhÄ©": 9103,
      "ĠHU": 9104,
      "moi": 9105,
      "dotel": 9106,
      "umin": 9107,
      "PTNT": 9108,
      "Ġlist": 9109,
      "Ġ93": 9110,
      "Ġláº½o": 9111,
      "Ġdecal": 9112,
      "Ġip": 9113,
      "ĠVAT": 9114,
      "THÃĶNG": 9115,
      "EG": 9116,
      "Ġhá»ħ": 9117,
      "chá»§": 9118,
      "cÆ¡": 9119,
      "ĠMÃ¡c": 9120,
      "ĠShar": 9121,
      "ä¸Ń": 9122,
      "ĠMunich": 9123,
      "Ġcá»Ļi": 9124,
      "Ġbiáº¿u": 9125,
      "ookie": 9126,
      "KÃ¨o": 9127,
      "SK": 9128,
      "ĠÄĳáº«m": 9129,
      "Ġbit": 9130,
      "ĠThÃ¢m": 9131,
      "ĠChiá»ĥu": 9132,
      "Ġtoáº£": 9133,
      "nha": 9134,
      "Ġbung": 9135,
      "ĠÄĳá»ĭt": 9136,
      "ĠFre": 9137,
      "Gháº¿": 9138,
      "ĠKn": 9139,
      "ĠPHÃģT": 9140,
      "Cá»¥c": 9141,
      "ged": 9142,
      "ĠNeymar": 9143,
      "TrÃł": 9144,
      "ĠBack": 9145,
      "ĠDáº¥u": 9146,
      "Ġwe": 9147,
      "ikvision": 9148,
      "Ġdáº§m": 9149,
      "ĠNÆ¯á»ļC": 9150,
      "ĠAh": 9151,
      "Ġ115": 9152,
      "Ġet": 9153,
      "Ġ777": 9154,
      "Ġlá»£p": 9155,
      "ĠrÃªu": 9156,
      "ĠPak": 9157,
      "ĠRáº¡ch": 9158,
      "Ġword": 9159,
      "dá»±": 9160,
      "Ġky": 9161,
      "Ġname": 9162,
      "ĠThang": 9163,
      "rect": 9164,
      "ĠRead": 9165,
      "ĠTÃł": 9166,
      "ĠCare": 9167,
      "ĠChÃ¡u": 9168,
      "ĠNhá»ı": 9169,
      "ĠRen": 9170,
      "Ġago": 9171,
      "Ġtiá»ĩt": 9172,
      "ĠCoc": 9173,
      "Ġ750": 9174,
      "AE": 9175,
      "Ġnáº¡o": 9176,
      "ĠVá»ĳn": 9177,
      "RiÃªng": 9178,
      "zuki": 9179,
      "Ġchan": 9180,
      "Ġket": 9181,
      "ĠtrÆ°á»£ng": 9182,
      "evelop": 9183,
      "Ġcity": 9184,
      "axi": 9185,
      "ĠNGAY": 9186,
      "ENT": 9187,
      "ĠÆ°Æ¡m": 9188,
      "Ġhydro": 9189,
      "Ġone": 9190,
      "ĠcÄĥm": 9191,
      "giáº£i": 9192,
      "dau": 9193,
      "?.": 9194,
      "zz": 9195,
      "ThÃ¢n": 9196,
      "Ngoáº¡i": 9197,
      "ights": 9198,
      "ĠÄĳÃ´n": 9199,
      "ĠNáº¥u": 9200,
      "ĠQuÃ¡ch": 9201,
      "ĠBXH": 9202,
      "ĠVIÃĬN": 9203,
      "ĠBusiness": 9204,
      "ĠsÃ³i": 9205,
      "Ġráº§m": 9206,
      "ĠBá»įn": 9207,
      "ĠKha": 9208,
      "ĠWat": 9209,
      "Ġ105": 9210,
      "ĠVietcombank": 9211,
      "bar": 9212,
      "Ġper": 9213,
      "ĠrÆ°á»¡i": 9214,
      "Ġ94": 9215,
      "Sp": 9216,
      "ĠngÃ¡ch": 9217,
      "ĠNav": 9218,
      "Ġquáº¥t": 9219,
      "ĠDream": 9220,
      "ĠcafÃ©": 9221,
      "EP": 9222,
      "ĤN": 9223,
      "nhat": 9224,
      "TrÃ¬nh": 9225,
      "ĠAlibaba": 9226,
      "ĠtÃ©": 9227,
      "Ġxáº©y": 9228,
      "ĠÃģn": 9229,
      "ðŁĳ": 9230,
      "ĠHÃĢNH": 9231,
      "?!": 9232,
      "Lá»¥c": 9233,
      "ĠSaf": 9234,
      "ĠViv": 9235,
      "ĠMÃ¨o": 9236,
      "ĠFrank": 9237,
      "ĠrÃ´": 9238,
      "tÃªn": 9239,
      "xa": 9240,
      "Ġvest": 9241,
      "ĠVo": 9242,
      "Ġ170": 9243,
      "ĠNháº¥n": 9244,
      "UYá»ĤN": 9245,
      "ĠBon": 9246,
      "ĠMid": 9247,
      "ĠSÆ°Æ¡ng": 9248,
      "247": 9249,
      "Ġtráº§u": 9250,
      "Ġrem": 9251,
      "ĠMotor": 9252,
      "ĠAut": 9253,
      "ĠYoo": 9254,
      "ĠĠ": 9255,
      "Ġthung": 9256,
      "ĠnhÃ¡": 9257,
      "Ġsite": 9258,
      "icester": 9259,
      "ĠlÃµm": 9260,
      "ĠVene": 9261,
      "akh": 9262,
      "ĠTá»µ": 9263,
      "ĠTal": 9264,
      "ĠÄĲáº¯c": 9265,
      "Quang": 9266,
      "ĠÄĳá»ĳn": 9267,
      "ĠTX": 9268,
      "Há»£p": 9269,
      "bat": 9270,
      "Ġrou": 9271,
      "ĠPat": 9272,
      "khu": 9273,
      "Ġthen": 9274,
      "ĠNÃł": 9275,
      "ĠEc": 9276,
      "Ġthá»Ńa": 9277,
      "ĠMall": 9278,
      "ĠvÃ¹i": 9279,
      "ĠlÄĥm": 9280,
      "ĠPok": 9281,
      "ĠFDI": 9282,
      "Giá»¯a": 9283,
      "ĠBÃ¨": 9284,
      "ĠChim": 9285,
      "Háº¡n": 9286,
      "wa": 9287,
      "ĠÆł": 9288,
      "ĠtrÆ¡": 9289,
      "ĠHollywood": 9290,
      "110": 9291,
      "Tok": 9292,
      "Ġcháº¯t": 9293,
      "ĠChá»ĵng": 9294,
      "TTXVN": 9295,
      "LÃ£o": 9296,
      "dor": 9297,
      "ĠBor": 9298,
      "ĠMach": 9299,
      "Nha": 9300,
      "Ãģp": 9301,
      "ĠbÃ¨o": 9302,
      "ito": 9303,
      "ĠEV": 9304,
      "ĠUltra": 9305,
      "Ġnick": 9306,
      "ĠTiáº¿u": 9307,
      "thá»Ŀi": 9308,
      "PhÆ°á»Ŀng": 9309,
      "ĠxoÃ¡": 9310,
      "izza": 9311,
      "2004": 9312,
      "ency": 9313,
      "CÃł": 9314,
      "á»İ": 9315,
      "organ": 9316,
      "Ġ108": 9317,
      "ĠHá»Ĵ": 9318,
      "ĠTiki": 9319,
      "ĠVnExpress": 9320,
      "Ġnai": 9321,
      "yÃªu": 9322,
      "ĠÎ": 9323,
      "ibo": 9324,
      "ĠItaly": 9325,
      "HáºŃu": 9326,
      "mit": 9327,
      "Ġlá»ĵi": 9328,
      "ĠTem": 9329,
      "ĠDáº¡y": 9330,
      "áºłCH": 9331,
      "mÃ¬nh": 9332,
      "Ġtáº»": 9333,
      "ĠTáºŃn": 9334,
      "ĠSel": 9335,
      "Hoáº·c": 9336,
      "Lá»Ľp": 9337,
      "ĠBá»ĳn": 9338,
      "ĠLáº¡nh": 9339,
      "ÃļC": 9340,
      "DÃ¢y": 9341,
      "Ġliáº¿m": 9342,
      "Ġhá»©c": 9343,
      "Ġguitar": 9344,
      "ĠrÃŃt": 9345,
      "Ġráº©y": 9346,
      "Ġentry": 9347,
      "vest": 9348,
      "ĠÄĲáº¸P": 9349,
      "Chá»©c": 9350,
      "ĠFit": 9351,
      "ĠHuáº¥n": 9352,
      "ĠHá»§y": 9353,
      "?âĢĿ": 9354,
      "RI": 9355,
      "rÃ´": 9356,
      "ĠÄĲÃ³ng": 9357,
      "ĠSD": 9358,
      "Cá»ķ": 9359,
      "ĠvÃ¡ng": 9360,
      "ĠLab": 9361,
      "Ġdien": 9362,
      "][": 9363,
      "ĠDah": 9364,
      "ĠSunshine": 9365,
      "LuÃ´n": 9366,
      "ghan": 9367,
      "ily": 9368,
      "ĠTitan": 9369,
      "Ġroi": 9370,
      "Ġacc": 9371,
      "Ħ¢": 9372,
      "Ġline": 9373,
      "ĠmÃ©o": 9374,
      "asc": 9375,
      "orts": 9376,
      "ient": 9377,
      "Ġtm": 9378,
      "Ġgang": 9379,
      "Ġgáº¯m": 9380,
      "ĠSuy": 9381,
      "ĠvÃµng": 9382,
      "Share": 9383,
      "ĠMoscow": 9384,
      "ÃĪ": 9385,
      "Ġnháºµn": 9386,
      "ĠChÆ°": 9387,
      "Tháº§n": 9388,
      "izen": 9389,
      "gio": 9390,
      "thong": 9391,
      "ĠCHá»¦": 9392,
      "Ġmá»įng": 9393,
      "Ġblu": 9394,
      "ĠPen": 9395,
      "ï¼ī": 9396,
      "................................": 9397,
      "gram": 9398,
      "ĠBáº¢O": 9399,
      "ĠGiÃ³": 9400,
      "Ġ1980": 9401,
      "ppo": 9402,
      "Dáº¡": 9403,
      "Ġluyáº¿n": 9404,
      "Ġmáº©u": 9405,
      "ism": 9406,
      "ĠArab": 9407,
      "Háº¡t": 9408,
      "ĠlÃºng": 9409,
      "Ġsá»ĩt": 9410,
      "ĠNob": 9411,
      "ĠVÄ©": 9412,
      "ĠSant": 9413,
      "ĠWall": 9414,
      "ĠExpress": 9415,
      "ĠPremium": 9416,
      "New": 9417,
      "dep": 9418,
      "ĠNext": 9419,
      "á»ģu": 9420,
      "ereum": 9421,
      "Ġenzym": 9422,
      "admin": 9423,
      "ĠCur": 9424,
      "ĠYang": 9425,
      "ĠMao": 9426,
      "vu": 9427,
      "ĠtrÆ°á»Ľng": 9428,
      "Ġgiá»ģng": 9429,
      "ĠANH": 9430,
      "Ġhas": 9431,
      "ĠAudio": 9432,
      "thÃ´ng": 9433,
      "achi": 9434,
      "LS": 9435,
      "Ġbá»īm": 9436,
      "ĠRu": 9437,
      "Ġpc": 9438,
      "ĠDiÃªn": 9439,
      "ĠDortmund": 9440,
      "ĠIOS": 9441,
      "field": 9442,
      "ĠRau": 9443,
      "atic": 9444,
      "OK": 9445,
      "Ġmel": 9446,
      "Ġsun": 9447,
      "QU": 9448,
      "vis": 9449,
      "Ġcotton": 9450,
      "onic": 9451,
      "ĠMoon": 9452,
      "ĠGáº·p": 9453,
      "ÄĲH": 9454,
      "ars": 9455,
      "ffe": 9456,
      "ĠWales": 9457,
      "Mai": 9458,
      "Tiá»ĩn": 9459,
      "æĸ": 9460,
      "ĠChiáº¿t": 9461,
      "Ġcal": 9462,
      "UYá»ĦN": 9463,
      "ulin": 9464,
      "åĲį": 9465,
      "Win": 9466,
      "ĠMov": 9467,
      "For": 9468,
      "Ġhá»Ļt": 9469,
      "Ġngá»«": 9470,
      "ĠSGK": 9471,
      "ĠSnap": 9472,
      "Ġlivestream": 9473,
      "Biáº¿t": 9474,
      "ĠtÃ²i": 9475,
      "Ġ3000": 9476,
      "aro": 9477,
      "Ġconc": 9478,
      "VÃ©": 9479,
      "Ġ1994": 9480,
      "ĠDigital": 9481,
      "HP": 9482,
      "thÆ°á»Ŀng": 9483,
      "GÄĲ": 9484,
      "ĠTab": 9485,
      "ĠDÃłnh": 9486,
      "Äĳáº§u": 9487,
      "ĠTRANG": 9488,
      "Ġhuá»·": 9489,
      "KD": 9490,
      "Ġbr": 9491,
      "ĠMá»ĺT": 9492,
      "ĠBeach": 9493,
      "ĠÄĲáº³ng": 9494,
      "ĠSá»°": 9495,
      "Äĳáº·c": 9496,
      "phat": 9497,
      "Ġah": 9498,
      "ĠTrá»Ł": 9499,
      "ĠCÃģCH": 9500,
      "BV": 9501,
      "Ġsinch": 9502,
      "hiá»ĩn": 9503,
      "chinh": 9504,
      "ĠÄĲam": 9505,
      "ĠLouis": 9506,
      "eople": 9507,
      "ĠXinh": 9508,
      "ĠVÃ©": 9509,
      "ĠRáºŃp": 9510,
      "Ġkn": 9511,
      "Ġsinc": 9512,
      "Khuyáº¿n": 9513,
      "val": 9514,
      "ĠTá»ģ": 9515,
      "Ġray": 9516,
      "ĠPep": 9517,
      "thá»ĭ": 9518,
      "Ġte": 9519,
      "ĠBá»Ĭ": 9520,
      "ĠSev": 9521,
      "ĠvÃ¢ng": 9522,
      "Ġ1992": 9523,
      "åŁ": 9524,
      "ĠchÃŃch": 9525,
      "Ġsá»§ng": 9526,
      "ĠhoÃ¡n": 9527,
      "áº¤n": 9528,
      "ĠTikibook": 9529,
      "ĠCá»Ń": 9530,
      "ĠCU": 9531,
      "ĠAnt": 9532,
      "ĠCloud": 9533,
      "ĠÃĲá»©c": 9534,
      "Ġáº¨m": 9535,
      "Táº§ng": 9536,
      "áºłNH": 9537,
      "ĠDiamond": 9538,
      "ĠbÃºi": 9539,
      "ĠTer": 9540,
      "Thá»ĳng": 9541,
      "iao": 9542,
      "ĠSir": 9543,
      "ĠPL": 9544,
      "ĠBrid": 9545,
      "dam": 9546,
      "Ġnáº¡t": 9547,
      "ĠBáº¢N": 9548,
      "ĠLA": 9549,
      "Ġ098": 9550,
      "ðŁĺ": 9551,
      "ĠquÄĥng": 9552,
      "dien": 9553,
      "ĠFanpage": 9554,
      "TPO": 9555,
      "ĠAPK": 9556,
      "Ġtv": 9557,
      "ĠWikipedia": 9558,
      "\"?": 9559,
      "ĠnÃł": 9560,
      "ĠdÃ£i": 9561,
      "ĠNÃły": 9562,
      "Ġhit": 9563,
      "ĠLS": 9564,
      "Ġsl": 9565,
      "Ġdat": 9566,
      "á»ĲT": 9567,
      "Ġstudio": 9568,
      "ĠDÃłi": 9569,
      "exas": 9570,
      "Báº¿p": 9571,
      "ĠthÃ©t": 9572,
      "Ġ789": 9573,
      "ocopy": 9574,
      "ĠVNPT": 9575,
      "ĠPN": 9576,
      "Ġ320": 9577,
      "ÃģNH": 9578,
      "ĠViews": 9579,
      "ĠRoma": 9580,
      "ĠÄĲá»ĬNH": 9581,
      "TIN": 9582,
      "Ġav": 9583,
      "ĠMill": 9584,
      "otion": 9585,
      "entine": 9586,
      "ichi": 9587,
      "ĠLazada": 9588,
      "ĠVÆ°á»£ng": 9589,
      "ilon": 9590,
      "Lá»±c": 9591,
      "ĠMoney": 9592,
      "ĠLak": 9593,
      "ĠRos": 9594,
      "cript": 9595,
      "ross": 9596,
      "amily": 9597,
      "Ġphao": 9598,
      "ĠMetro": 9599,
      "å½ĵ": 9600,
      "Ġbon": 9601,
      "ĠphÃłm": 9602,
      "Ġanime": 9603,
      "OH": 9604,
      "ĠXáº¿p": 9605,
      "ask": 9606,
      "opp": 9607,
      "ĠCáº©n": 9608,
      "Google": 9609,
      "ĠnÃ´i": 9610,
      "oro": 9611,
      "atia": 9612,
      "ĠCHáº¤T": 9613,
      "Min": 9614,
      "¢P": 9615,
      "Ð»": 9616,
      "Ġkhiáº¿m": 9617,
      "ĠCos": 9618,
      "ĠBIDV": 9619,
      "ghanistan": 9620,
      "La": 9621,
      "ĠtÃ£": 9622,
      "ĠNhá»±a": 9623,
      "âĹı": 9624,
      "ĠthÃ¢u": 9625,
      "Ġlá»ĳt": 9626,
      "OP": 9627,
      "Å¨": 9628,
      "inger": 9629,
[...]
